{
  "version": "1.0",
  "truncation": null,
  "padding": null,
  "added_tokens": [
    {
      "id": 0,
      "content": "[PAD]",
      "single_word": false,
      "lstrip": false,
      "rstrip": false,
      "normalized": false,
      "special": true
    },
    {
      "id": 1,
      "content": "[UNK]",
      "single_word": false,
      "lstrip": false,
      "rstrip": false,
      "normalized": false,
      "special": true
    },
    {
      "id": 2,
      "content": "[CLS]",
      "single_word": false,
      "lstrip": false,
      "rstrip": false,
      "normalized": false,
      "special": true
    },
    {
      "id": 3,
      "content": "[SEP]",
      "single_word": false,
      "lstrip": false,
      "rstrip": false,
      "normalized": false,
      "special": true
    },
    {
      "id": 4,
      "content": "[MASK]",
      "single_word": false,
      "lstrip": false,
      "rstrip": false,
      "normalized": false,
      "special": true
    }
  ],
  "normalizer": {
    "type": "BertNormalizer",
    "clean_text": true,
    "handle_chinese_chars": true,
    "strip_accents": null,
    "lowercase": true
  },
  "pre_tokenizer": {
    "type": "BertPreTokenizer"
  },
  "post_processor": {
    "type": "TemplateProcessing",
    "single": [
      {
        "SpecialToken": {
          "id": "[CLS]",
          "type_id": 0
        }
      },
      {
        "Sequence": {
          "id": "A",
          "type_id": 0
        }
      },
      {
        "SpecialToken": {
          "id": "[SEP]",
          "type_id": 0
        }
      }
    ],
    "pair": [
      {
        "SpecialToken": {
          "id": "[CLS]",
          "type_id": 0
        }
      },
      {
        "Sequence": {
          "id": "A",
          "type_id": 0
        }
      },
      {
        "SpecialToken": {
          "id": "[SEP]",
          "type_id": 0
        }
      },
      {
        "Sequence": {
          "id": "B",
          "type_id": 1
        }
      },
      {
        "SpecialToken": {
          "id": "[SEP]",
          "type_id": 1
        }
      }
    ],
    "special_tokens": {
      "[CLS]": {
        "id": "[CLS]",
        "ids": [
          2
        ],
        "tokens": [
          "[CLS]"
        ]
      },
      "[SEP]": {
        "id": "[SEP]",
        "ids": [
          3
        ],
        "tokens": [
          "[SEP]"
        ]
      }
    }
  },
  "decoder": {
    "type": "WordPiece",
    "prefix": "##",
    "cleanup": true
  },
  "model": {
    "type": "WordPiece",
    "unk_token": "[UNK]",
    "continuing_subword_prefix": "##",
    "max_input_chars_per_word": 100,
    "vocab": {
      "[PAD]": 0,
      "[UNK]": 1,
      "[CLS]": 2,
      "[SEP]": 3,
      "[MASK]": 4,
      "'": 5,
      ",": 6,
      ".": 7,
      "0": 8,
      "1": 9,
      "2": 10,
      "3": 11,
      "4": 12,
      "5": 13,
      "6": 14,
      "7": 15,
      "8": 16,
      "9": 17,
      ";": 18,
      "?": 19,
      "_": 20,
      "a": 21,
      "b": 22,
      "c": 23,
      "d": 24,
      "e": 25,
      "f": 26,
      "g": 27,
      "h": 28,
      "i": 29,
      "j": 30,
      "k": 31,
      "l": 32,
      "m": 33,
      "n": 34,
      "o": 35,
      "p": 36,
      "q": 37,
      "r": 38,
      "s": 39,
      "t": 40,
      "u": 41,
      "v": 42,
      "w": 43,
      "x": 44,
      "y": 45,
      "z": 46,
      "##k": 47,
      "##i": 48,
      "##f": 49,
      "##u": 50,
      "##n": 51,
      "##g": 52,
      "##r": 53,
      "##a": 54,
      "##z": 55,
      "##o": 56,
      "##m": 57,
      "##4": 58,
      "##8": 59,
      "##5": 60,
      "##2": 61,
      "##6": 62,
      "##e": 63,
      "##t": 64,
      "##b": 65,
      "##y": 66,
      "##s": 67,
      "##h": 68,
      "##p": 69,
      "##c": 70,
      "##v": 71,
      "##w": 72,
      "##0": 73,
      "##d": 74,
      "##j": 75,
      "##l": 76,
      "##q": 77,
      "##3": 78,
      "##9": 79,
      "##7": 80,
      "##1": 81,
      "##x": 82,
      "##an": 83,
      "##ri": 84,
      "##ra": 85,
      "mu": 86,
      "##ga": 87,
      "##ba": 88,
      "##re": 89,
      "##sh": 90,
      "ku": 91,
      "##wa": 92,
      "##ya": 93,
      "##ye": 94,
      "##ko": 95,
      "ba": 96,
      "##in": 97,
      "##ma": 98,
      "##ka": 99,
      "##we": 100,
      "##za": 101,
      "##mu": 102,
      "##it": 103,
      "ya": 104,
      "##yo": 105,
      "##gi": 106,
      "##ge": 107,
      "##ru": 108,
      "##bi": 109,
      "##bu": 110,
      "##zi": 111,
      "##go": 112,
      "##da": 113,
      "##bo": 114,
      "##ze": 115,
      "##ta": 116,
      "##yi": 117,
      "##se": 118,
      "umu": 119,
      "##ki": 120,
      "##tu": 121,
      "##ro": 122,
      "ko": 123,
      "##ku": 124,
      "##me": 125,
      "##te": 126,
      "gu": 127,
      "in": 128,
      "aba": 129,
      "bi": 130,
      "##ho": 131,
      "##gu": 132,
      "##di": 133,
      "##si": 134,
      "##ana": 135,
      "##ha": 136,
      "im": 137,
      "na": 138,
      "wa": 139,
      "##wi": 140,
      "##ti": 141,
      "##vu": 142,
      "ubu": 143,
      "##he": 144,
      "##yu": 145,
      "ama": 146,
      "##ban": 147,
      "##hu": 148,
      "##be": 149,
      "bu": 150,
      "ha": 151,
      "##je": 152,
      "##sha": 153,
      "##yan": 154,
      "##wan": 155,
      "##mo": 156,
      "ni": 157,
      "muri": 158,
      "##sa": 159,
      "##wo": 160,
      "##ite": 161,
      "##ran": 162,
      "##de": 163,
      "ka": 164,
      "ari": 165,
      "##li": 166,
      "##on": 167,
      "##tan": 168,
      "##shi": 169,
      "##rwa": 170,
      "ibi": 171,
      "ki": 172,
      "##fa": 173,
      "##ke": 174,
      "ru": 175,
      "ma": 176,
      "ib": 177,
      "##mwe": 178,
      "##en": 179,
      "##wanda": 180,
      "##gan": 181,
      "gi": 182,
      "##mi": 183,
      "aban": 184,
      "##tse": 185,
      "##han": 186,
      "igi": 187,
      "##du": 188,
      "##zo": 189,
      "##so": 190,
      "##gira": 191,
      "iki": 192,
      "##ita": 193,
      "##kin": 194,
      "##to": 195,
      "ngo": 196,
      "##mba": 197,
      "kan": 198,
      "cyan": 199,
      "##vuga": 200,
      "rwanda": 201,
      "##kuru": 202,
      "##gen": 203,
      "##bwo": 204,
      "yo": 205,
      "##bere": 206,
      "##na": 207,
      "##fu": 208,
      "##hi": 209,
      "##hugu": 210,
      "ga": 211,
      "##gwa": 212,
      "##kan": 213,
      "ic": 214,
      "20": 215,
      "no": 216,
      "##gara": 217,
      "bya": 218,
      "##zwe": 219,
      "uru": 220,
      "kuri": 221,
      "aka": 222,
      "##san": 223,
      "##sho": 224,
      "##kore": 225,
      "cya": 226,
      "nta": 227,
      "##fite": 228,
      "tu": 229,
      "##nge": 230,
      "kandi": 231,
      "##ne": 232,
      "##le": 233,
      "zi": 234,
      "##men": 235,
      "##shin": 236,
      "we": 237,
      "##va": 238,
      "uko": 239,
      "mi": 240,
      "##cu": 241,
      "##bwa": 242,
      "kwi": 243,
      "##yobo": 244,
      "##kome": 245,
      "##kun": 246,
      "##su": 247,
      "imi": 248,
      "ariko": 249,
      "hari": 250,
      "##giye": 251,
      "kuba": 252,
      "##ts": 253,
      "##ce": 254,
      "##rere": 255,
      "##pe": 256,
      "##zu": 257,
      "##do": 258,
      "##ina": 259,
      "by": 260,
      "nde": 261,
      "za": 262,
      "kuko": 263,
      "ati": 264,
      "##shyi": 265,
      "um": 266,
      "uyu": 267,
      "##vi": 268,
      "##iti": 269,
      "##or": 270,
      "##riki": 271,
      "umun": 272,
      "bo": 273,
      "##ini": 274,
      "ri": 275,
      "##kora": 276,
      "aho": 277,
      "##la": 278,
      "co": 279,
      "re": 280,
      "##ryo": 281,
      "ndetse": 282,
      "##ci": 283,
      "##rika": 284,
      "##shu": 285,
      "##shobo": 286,
      "##tanga": 287,
      "##bwi": 288,
      "##yuma": 289,
      "cyane": 290,
      "##ca": 291,
      "##ve": 292,
      "##pa": 293,
      "bari": 294,
      "ye": 295,
      "##yama": 296,
      "##jya": 297,
      "the": 298,
      "an": 299,
      "abantu": 300,
      "##mbi": 301,
      "##gera": 302,
      "bwa": 303,
      "bw": 304,
      "cy": 305,
      "##tege": 306,
      "nk": 307,
      "##korwa": 308,
      "le": 309,
      "ne": 310,
      "yi": 311,
      "201": 312,
      "mun": 313,
      "##yaka": 314,
      "abatu": 315,
      "##yobozi": 316,
      "se": 317,
      "##mbo": 318,
      "pe": 319,
      "##biri": 320,
      "igihugu": 321,
      "byo": 322,
      "##nda": 323,
      "##jwe": 324,
      "##nga": 325,
      "ubwo": 326,
      "pa": 327,
      "yari": 328,
      "cyangwa": 329,
      "##she": 330,
      "##bera": 331,
      "ibyo": 332,
      "icyo": 333,
      "rwa": 334,
      "gihe": 335,
      "##rezi": 336,
      "du": 337,
      "##bye": 338,
      "##tsi": 339,
      "rya": 340,
      "ban": 341,
      "iyo": 342,
      "##itwa": 343,
      "##kaba": 344,
      "##rage": 345,
      "##itan": 346,
      "mbere": 347,
      "##ira": 348,
      "ry": 349,
      "##ni": 350,
      "##bona": 351,
      "rw": 352,
      "nyuma": 353,
      "##gabo": 354,
      "##hin": 355,
      "avuga": 356,
      "iyi": 357,
      "##garaga": 358,
      "to": 359,
      "sa": 360,
      "##shaka": 361,
      "##gize": 362,
      "##bazo": 363,
      "iz": 364,
      "ra": 365,
      "de": 366,
      "aga": 367,
      "##zwa": 368,
      "##pu": 369,
      "##hanga": 370,
      "##riye": 371,
      "##kwi": 372,
      "##ndi": 373,
      "##ngu": 374,
      "##rimo": 375,
      "##vuze": 376,
      "be": 377,
      "##yango": 378,
      "##kanye": 379,
      "##indi": 380,
      "nti": 381,
      "cyo": 382,
      "19": 383,
      "po": 384,
      "kugira": 385,
      "##ine": 386,
      "##faran": 387,
      "##man": 388,
      "##rana": 389,
      "##shobora": 390,
      "##maze": 391,
      "##twa": 392,
      "##bana": 393,
      "##shya": 394,
      "##00": 395,
      "##kana": 396,
      "##mana": 397,
      "ta": 398,
      "##itu": 399,
      "##tera": 400,
      "##st": 401,
      "##ryango": 402,
      "##tion": 403,
      "##rwanda": 404,
      "nya": 405,
      "twa": 406,
      "neza": 407,
      "##waka": 408,
      "##rezida": 409,
      "wo": 410,
      "##gore": 411,
      "##co": 412,
      "bwo": 413,
      "gusa": 414,
      "igihe": 415,
      "##kira": 416,
      "##il": 417,
      "perezida": 418,
      "##wu": 419,
      "##kino": 420,
      "##zima": 421,
      "##jye": 422,
      "##enshi": 423,
      "##mbu": 424,
      "##reza": 425,
      "and": 426,
      "##byi": 427,
      "leta": 428,
      "kiga": 429,
      "##rira": 430,
      "##riza": 431,
      "##tsin": 432,
      "##ji": 433,
      "abaturage": 434,
      "ata": 435,
      "##ren": 436,
      "abandi": 437,
      "##gana": 438,
      "imyaka": 439,
      "##gani": 440,
      "##by": 441,
      "iri": 442,
      "##inshi": 443,
      "##ruka": 444,
      "##lo": 445,
      "uku": 446,
      "##fasha": 447,
      "of": 448,
      "kigali": 449,
      "##faranga": 450,
      "##shuri": 451,
      "##baye": 452,
      "##renge": 453,
      "da": 454,
      "##ngo": 455,
      "##fi": 456,
      "##geze": 457,
      "bara": 458,
      "##inis": 459,
      "##yarwanda": 460,
      "izina": 461,
      "umuntu": 462,
      "buryo": 463,
      "umwe": 464,
      "##geza": 465,
      "##ani": 466,
      "##po": 467,
      "##rwe": 468,
      "##bya": 469,
      "##mva": 470,
      "isi": 471,
      "si": 472,
      "nu": 473,
      "buri": 474,
      "##ter": 475,
      "##pi": 476,
      "##kuriki": 477,
      "##ing": 478,
      "##menye": 479,
      "##tegeko": 480,
      "yavuze": 481,
      "zo": 482,
      "aha": 483,
      "ig": 484,
      "ikin": 485,
      "##saba": 486,
      "bata": 487,
      "##ganda": 488,
      "##gomba": 489,
      "##por": 490,
      "kubera": 491,
      "##shyira": 492,
      "##ja": 493,
      "##al": 494,
      "##gura": 495,
      "##ciro": 496,
      "##shimi": 497,
      "minis": 498,
      "##dukanye": 499,
      "akaba": 500,
      "imbere": 501,
      "baka": 502,
      "mo": 503,
      "##wanya": 504,
      "kwa": 505,
      "##ment": 506,
      "##nye": 507,
      "##wana": 508,
      "uwo": 509,
      "##komeza": 510,
      "##nyi": 511,
      "tariki": 512,
      "##one": 513,
      "imana": 514,
      "##rezo": 515,
      "abo": 516,
      "##zaba": 517,
      "vi": 518,
      "##sanga": 519,
      "ho": 520,
      "##yon": 521,
      "baba": 522,
      "amafaranga": 523,
      "##sanzwe": 524,
      "han": 525,
      "abana": 526,
      "##bwe": 527,
      "yan": 528,
      "##ranye": 529,
      "ara": 530,
      "abi": 531,
      "bita": 532,
      "kw": 533,
      "##subi": 534,
      "##un": 535,
      "he": 536,
      "rwe": 537,
      "me": 538,
      "##tum": 539,
      "te": 540,
      "##ur": 541,
      "##shinzwe": 542,
      "gihugu": 543,
      "202": 544,
      "com": 545,
      "##rin": 546,
      "##raga": 547,
      "##yamakuru": 548,
      "##komeye": 549,
      "##ju": 550,
      "##kwa": 551,
      "yagize": 552,
      "nka": 553,
      "##yaha": 554,
      "##koze": 555,
      "mwaka": 556,
      "##fo": 557,
      "##bura": 558,
      "ame": 559,
      "di": 560,
      "##kobwa": 561,
      "##zamu": 562,
      "##sin": 563,
      "##ue": 564,
      "nda": 565,
      "##jyi": 566,
      "##shyu": 567,
      "munsi": 568,
      "benshi": 569,
      "so": 570,
      "karere": 571,
      "afu": 572,
      "##intu": 573,
      "##kiri": 574,
      "spor": 575,
      "##shwa": 576,
      "##koresha": 577,
      "##mbe": 578,
      "ita": 579,
      "ca": 580,
      "gukora": 581,
      "##guru": 582,
      "##ito": 583,
      "##curu": 584,
      "haga": 585,
      "##pr": 586,
      "##fata": 587,
      "##shan": 588,
      "yara": 589,
      "fc": 590,
      "##korera": 591,
      "##ama": 592,
      "kaga": 593,
      "poli": 594,
      "##banu": 595,
      "##bwira": 596,
      "con": 597,
      "##pam": 598,
      "umuyobozi": 599,
      "bite": 600,
      "rwo": 601,
      "##bone": 602,
      "##zira": 603,
      "##rs": 604,
      "bose": 605,
      "##buga": 606,
      "##zama": 607,
      "ikipe": 608,
      "##ss": 609,
      "ad": 610,
      "byi": 611,
      "niba": 612,
      "ubuzima": 613,
      "##garagaza": 614,
      "indi": 615,
      "amakuru": 616,
      "mili": 617,
      "wi": 618,
      "uburyo": 619,
      "uwa": 620,
      "##osi": 621,
      "##tara": 622,
      "aza": 623,
      "##jyan": 624,
      "baga": 625,
      "##komeje": 626,
      "kugeza": 627,
      "##ngera": 628,
      "kwe": 629,
      "##byo": 630,
      "##ham": 631,
      "##ll": 632,
      "##rya": 633,
      "afurika": 634,
      "kuva": 635,
      "##itiri": 636,
      "##pan": 637,
      "##kunda": 638,
      "sports": 639,
      "rayon": 640,
      "##genda": 641,
      "##pamvu": 642,
      "bamwe": 643,
      "byose": 644,
      "ahu": 645,
      "##yeme": 646,
      "afite": 647,
      "##seze": 648,
      "##kura": 649,
      "rwego": 650,
      "##dwa": 651,
      "baza": 652,
      "##shize": 653,
      "##er": 654,
      "##shije": 655,
      "##insi": 656,
      "batu": 657,
      "##kinnyi": 658,
      "##fatan": 659,
      "la": 660,
      "wari": 661,
      "##tangiye": 662,
      "##yoni": 663,
      "##shinga": 664,
      "##reke": 665,
      "2020": 666,
      "##pfu": 667,
      "##genzi": 668,
      "jen": 669,
      "80": 670,
      "hagati": 671,
      "umuryango": 672,
      "##rutse": 673,
      "bafite": 674,
      "je": 675,
      "af": 676,
      "fa": 677,
      "##hindu": 678,
      "abanyarwanda": 679,
      "uganda": 680,
      "##gere": 681,
      "##sobanu": 682,
      "yaba": 683,
      "mukuru": 684,
      "do": 685,
      "pro": 686,
      "##kwe": 687,
      "inama": 688,
      "##mbere": 689,
      "##oside": 690,
      "inte": 691,
      "ibindi": 692,
      "ahan": 693,
      "gute": 694,
      "inga": 695,
      "guha": 696,
      "10": 697,
      "jenoside": 698,
      "akarere": 699,
      "is": 700,
      "gahu": 701,
      "##ingo": 702,
      "umugore": 703,
      "##menya": 704,
      "##gari": 705,
      "ikibazo": 706,
      "##kwiye": 707,
      "fi": 708,
      "##gisha": 709,
      "ntabwo": 710,
      "##ota": 711,
      "kumu": 712,
      "##el": 713,
      "baha": 714,
      "##kene": 715,
      "bavuga": 716,
      "##twe": 717,
      "##zan": 718,
      "gahunda": 719,
      "iza": 720,
      "##kozi": 721,
      "ibikorwa": 722,
      "ahubwo": 723,
      "##tsinda": 724,
      "kagame": 725,
      "##mvi": 726,
      "##riya": 727,
      "umwana": 728,
      "##rimbo": 729,
      "##vid": 730,
      "yu": 731,
      "##jyanye": 732,
      "kabiri": 733,
      "su": 734,
      "bitan": 735,
      "##gami": 736,
      "##tuma": 737,
      "##hanzi": 738,
      "##hita": 739,
      "##cyo": 740,
      "##jo": 741,
      "li": 742,
      "##rt": 743,
      "hi": 744,
      "harimo": 745,
      "##hari": 746,
      "imba": 747,
      "al": 748,
      "##korana": 749,
      "ibintu": 750,
      "##ry": 751,
      "##ire": 752,
      "for": 753,
      "amerika": 754,
      "##mera": 755,
      "polisi": 756,
      "dago": 757,
      "##bonye": 758,
      "##byte": 759,
      "##renga": 760,
      "dagobyte": 761,
      "miliyoni": 762,
      "##tangira": 763,
      "##oni": 764,
      "##mail": 765,
      "abatutsi": 766,
      "##garagara": 767,
      "##itse": 768,
      "kin": 769,
      "##shwe": 770,
      "2019": 771,
      "##van": 772,
      "ny": 773,
      "##ris": 774,
      "jean": 775,
      "##mbwa": 776,
      "umute": 777,
      "##ul": 778,
      "##zego": 779,
      "cyu": 780,
      "##ganiro": 781,
      "##shye": 782,
      "##kiko": 783,
      "jo": 784,
      "##bwiye": 785,
      "##mweru": 786,
      "nyi": 787,
      "##reba": 788,
      "amategeko": 789,
      "byinshi": 790,
      "ndi": 791,
      "email": 792,
      "buru": 793,
      "##hise": 794,
      "en": 795,
      "##iteri": 796,
      "##here": 797,
      "##its": 798,
      "nawe": 799,
      "itera": 800,
      "##kano": 801,
      "mpu": 802,
      "covid": 803,
      "umugabo": 804,
      "minisitiri": 805,
      "##rusha": 806,
      "icya": 807,
      "##tangi": 808,
      "##vugwa": 809,
      "##no": 810,
      "hamwe": 811,
      "##rinda": 812,
      "ibibazo": 813,
      "##mere": 814,
      "##tanu": 815,
      "ibya": 816,
      "bamu": 817,
      "##vuye": 818,
      "##bare": 819,
      "##fe": 820,
      "bikorwa": 821,
      "kimwe": 822,
      "##ch": 823,
      "maze": 824,
      "itanga": 825,
      "##rasi": 826,
      "##byeyi": 827,
      "kujya": 828,
      "##yana": 829,
      "99": 830,
      "##tumwa": 831,
      "##horo": 832,
      "000": 833,
      "##banza": 834,
      "aya": 835,
      "kubi": 836,
      "naho": 837,
      "##tare": 838,
      "##iteke": 839,
      "ubuyobozi": 840,
      "##inyu": 841,
      "##ywa": 842,
      "##kiye": 843,
      "##gaban": 844,
      "ge": 845,
      "15": 846,
      "##zuba": 847,
      "un": 848,
      "iba": 849,
      "bira": 850,
      "##teka": 851,
      "##riro": 852,
      "##rd": 853,
      "dr": 854,
      "##lu": 855,
      "##fun": 856,
      "##ramo": 857,
      "ibihugu": 858,
      "umutekano": 859,
      "gutanga": 860,
      "as": 861,
      "sta": 862,
      "##siga": 863,
      "mwa": 864,
      "##humbi": 865,
      "##rano": 866,
      "##que": 867,
      "akazi": 868,
      "uta": 869,
      "nko": 870,
      "ika": 871,
      "##sanze": 872,
      "##seke": 873,
      "are": 874,
      "pu": 875,
      "##gendo": 876,
      "##yije": 877,
      "rero": 878,
      "yabo": 879,
      "ira": 880,
      "##tegetsi": 881,
      "##es": 882,
      "ubuta": 883,
      "yose": 884,
      "witwa": 885,
      "##tora": 886,
      "##curuzi": 887,
      "iso": 888,
      "##sirika": 889,
      "kubona": 890,
      "##rengan": 891,
      "##mari": 892,
      "nku": 893,
      "ubwi": 894,
      "man": 895,
      "##fashe": 896,
      "##dwara": 897,
      "##guye": 898,
      "##ruko": 899,
      "##dan": 900,
      "kam": 901,
      "##ric": 902,
      "##rije": 903,
      "12": 904,
      "none": 905,
      "bakaba": 906,
      "mwi": 907,
      "##soho": 908,
      "##tin": 909,
      "##sange": 910,
      "##baza": 911,
      "##tandukanye": 912,
      "##gano": 913,
      "ro": 914,
      "199": 915,
      "umwaka": 916,
      "ugu": 917,
      "utu": 918,
      "##sirikare": 919,
      "##mye": 920,
      "##kina": 921,
      "##bili": 922,
      "##byiruko": 923,
      "biza": 924,
      "wese": 925,
      "2018": 926,
      "go": 927,
      "abagore": 928,
      "##shy": 929,
      "##sore": 930,
      "##yiza": 931,
      "yaha": 932,
      "##ven": 933,
      "##ganira": 934,
      "##rw": 935,
      "yakore": 936,
      "##swa": 937,
      "##hare": 938,
      "200": 939,
      "umukino": 940,
      "##ngi": 941,
      "##rwanya": 942,
      "##rangi": 943,
      "bwi": 944,
      "##ngereza": 945,
      "izi": 946,
      "##fuza": 947,
      "ufite": 948,
      "##mp": 949,
      "##hova": 950,
      "uri": 951,
      "kugi": 952,
      "bihugu": 953,
      "##lika": 954,
      "undi": 955,
      "##moka": 956,
      "hafi": 957,
      "##shanwa": 958,
      "ikigo": 959,
      "##sabye": 960,
      "##gingo": 961,
      "iminsi": 962,
      "muntu": 963,
      "rusange": 964,
      "##doka": 965,
      "bitu": 966,
      "##itego": 967,
      "aman": 968,
      "abayobozi": 969,
      "##banga": 970,
      "##ganya": 971,
      "barimo": 972,
      "##jyana": 973,
      "##pfo": 974,
      "##tangaje": 975,
      "##itekerezo": 976,
      "babi": 977,
      "imwe": 978,
      "##sezerano": 979,
      "hu": 980,
      "apr": 981,
      "umujyi": 982,
      "bit": 983,
      "rugo": 984,
      "nubwo": 985,
      "##tanda": 986,
      "##rus": 987,
      "ti": 988,
      "##shyize": 989,
      "##inu": 990,
      "##ywe": 991,
      "##gero": 992,
      "ke": 993,
      "##ent": 994,
      "##menyi": 995,
      "##rane": 996,
      "agira": 997,
      "##ver": 998,
      "##hura": 999,
      "ubumwe": 1000,
      "ayo": 1001,
      "##zwi": 1002,
      "##gizi": 1003,
      "##mbye": 1004,
      "wan": 1005,
      "25": 1006,
      "##toza": 1007,
      "mujyi": 1008,
      "##dio": 1009,
      "##kundo": 1010,
      "##yuba": 1011,
      "nkuru": 1012,
      "##ene": 1013,
      "isa": 1014,
      "my": 1015,
      "11": 1016,
      "indirimbo": 1017,
      "##handa": 1018,
      "##ranya": 1019,
      "ryo": 1020,
      "umusa": 1021,
      "18": 1022,
      "uruhare": 1023,
      "biba": 1024,
      "umwi": 1025,
      "##retse": 1026,
      "abari": 1027,
      "ibihumbi": 1028,
      "##gende": 1029,
      "uza": 1030,
      "amu": 1031,
      "impamvu": 1032,
      "kugera": 1033,
      "abakinnyi": 1034,
      "##ruro": 1035,
      "##rona": 1036,
      "murenge": 1037,
      "biga": 1038,
      "##ly": 1039,
      "iterambere": 1040,
      "bamaze": 1041,
      "ar": 1042,
      "ur": 1043,
      "umuseke": 1044,
      "##tumye": 1045,
      "umwa": 1046,
      "##fati": 1047,
      "##hinzi": 1048,
      "yehova": 1049,
      "hanze": 1050,
      "##zina": 1051,
      "kubu": 1052,
      "tura": 1053,
      "##tore": 1054,
      "##faransa": 1055,
      "##mbara": 1056,
      "minisiteri": 1057,
      "##mun": 1058,
      "##tso": 1059,
      "##ton": 1060,
      "au": 1061,
      "paul": 1062,
      "##juru": 1063,
      "##kungu": 1064,
      "##ir": 1065,
      "ja": 1066,
      "mukino": 1067,
      "amavu": 1068,
      "##mara": 1069,
      "inzego": 1070,
      "##day": 1071,
      "nibwo": 1072,
      "gata": 1073,
      "ab": 1074,
      "atari": 1075,
      "abanya": 1076,
      "biri": 1077,
      "amaze": 1078,
      "##ndo": 1079,
      "##kipe": 1080,
      "ifite": 1081,
      "##reka": 1082,
      "##huza": 1083,
      "amazi": 1084,
      "agaciro": 1085,
      "ubundi": 1086,
      "repu": 1087,
      "iha": 1088,
      "14": 1089,
      "nyama": 1090,
      "##rire": 1091,
      "##razuba": 1092,
      "##shimira": 1093,
      "itegeko": 1094,
      "##gambo": 1095,
      "##mwa": 1096,
      "##rango": 1097,
      "##zamakuru": 1098,
      "cye": 1099,
      "##pera": 1100,
      "##ws": 1101,
      "##th": 1102,
      "umutu": 1103,
      "##mbuye": 1104,
      "##rongo": 1105,
      "imbaraga": 1106,
      "bityo": 1107,
      "##tandatu": 1108,
      "twi": 1109,
      "##lle": 1110,
      "mpuzama": 1111,
      "kuza": 1112,
      "13": 1113,
      "bantu": 1114,
      "##foto": 1115,
      "umukobwa": 1116,
      "kibazo": 1117,
      "inshu": 1118,
      "on": 1119,
      "##ronavi": 1120,
      "tan": 1121,
      "##kombe": 1122,
      "##gene": 1123,
      "##bereye": 1124,
      "thi": 1125,
      "##yobora": 1126,
      "rwi": 1127,
      "umunsi": 1128,
      "bitandukanye": 1129,
      "##shobozi": 1130,
      "##hora": 1131,
      "##hampi": 1132,
      "mar": 1133,
      "##yeshuri": 1134,
      "amaso": 1135,
      "##pira": 1136,
      "radio": 1137,
      "abakozi": 1138,
      "cyumweru": 1139,
      "##ranga": 1140,
      "##twara": 1141,
      "mpuzamahanga": 1142,
      "##lan": 1143,
      "myaka": 1144,
      "##bli": 1145,
      "ingabo": 1146,
      "izindi": 1147,
      "##singi": 1148,
      "##tima": 1149,
      "##pfa": 1150,
      "ubwa": 1151,
      "##nzi": 1152,
      "##rica": 1153,
      "amashuri": 1154,
      "30": 1155,
      "##zweho": 1156,
      "haba": 1157,
      "##bwiriza": 1158,
      "impu": 1159,
      "##og": 1160,
      "mpamvu": 1161,
      "##mwi": 1162,
      "urubyiruko": 1163,
      "##rani": 1164,
      "##ganga": 1165,
      "nyinshi": 1166,
      "##buhanga": 1167,
      "bana": 1168,
      "##bazi": 1169,
      "tele": 1170,
      "bagiye": 1171,
      "gushyira": 1172,
      "impan": 1173,
      "gicu": 1174,
      "saa": 1175,
      "nabo": 1176,
      "imikino": 1177,
      "##mura": 1178,
      "16": 1179,
      "et": 1180,
      "muka": 1181,
      "ju": 1182,
      "uba": 1183,
      "##hana": 1184,
      "kurusha": 1185,
      "##mira": 1186,
      "##itanga": 1187,
      "##ken": 1188,
      "##is": 1189,
      "ivuga": 1190,
      "ub": 1191,
      "wil": 1192,
      "##liti": 1193,
      "##rera": 1194,
      "##ds": 1195,
      "##sheje": 1196,
      "umuvu": 1197,
      "uka": 1198,
      "##shyirwa": 1199,
      "azi": 1200,
      "gatatu": 1201,
      "bwe": 1202,
      "##enya": 1203,
      "##hat": 1204,
      "##bira": 1205,
      "17": 1206,
      "##teye": 1207,
      "##genga": 1208,
      "kun": 1209,
      "##tive": 1210,
      "##meza": 1211,
      "##shyura": 1212,
      "##fashi": 1213,
      "kwan": 1214,
      "ushinzwe": 1215,
      "##ranira": 1216,
      "amahoro": 1217,
      "today": 1218,
      "##hirwe": 1219,
      "##uba": 1220,
      "ikorana": 1221,
      "2017": 1222,
      "fo": 1223,
      "kwirinda": 1224,
      "##haye": 1225,
      "##qu": 1226,
      "##ogle": 1227,
      "inta": 1228,
      "##shinja": 1229,
      "uburezi": 1230,
      "##tri": 1231,
      "indwara": 1232,
      "nan": 1233,
      "##kunze": 1234,
      "##rirwa": 1235,
      "##ronavirus": 1236,
      "##gire": 1237,
      "inzu": 1238,
      "##yeho": 1239,
      "ishuri": 1240,
      "##rushanwa": 1241,
      "##hera": 1242,
      "##shami": 1243,
      "##den": 1244,
      "##senge": 1245,
      "##ste": 1246,
      "izo": 1247,
      "##herere": 1248,
      "nabi": 1249,
      "##nd": 1250,
      "##fatwa": 1251,
      "##inji": 1252,
      "##rayi": 1253,
      "byari": 1254,
      "coronavirus": 1255,
      "vie": 1256,
      "##shimiye": 1257,
      "##poro": 1258,
      "umwu": 1259,
      "##inuza": 1260,
      "urukiko": 1261,
      "inyu": 1262,
      "##kozwe": 1263,
      "inko": 1264,
      "umwanya": 1265,
      "##tsinze": 1266,
      "kwiga": 1267,
      "ukuri": 1268,
      "##yandi": 1269,
      "yakorewe": 1270,
      "ibiri": 1271,
      "at": 1272,
      "ikindi": 1273,
      "nzi": 1274,
      "mata": 1275,
      "umunyama": 1276,
      "ikoranabuhanga": 1277,
      "fran": 1278,
      "##cyaha": 1279,
      "ze": 1280,
      "kaminuza": 1281,
      "##hoze": 1282,
      "rimwe": 1283,
      "##ruki": 1284,
      "##sby": 1285,
      "bakora": 1286,
      "##renze": 1287,
      "ruhan": 1288,
      "umusaruro": 1289,
      "muryango": 1290,
      "##siyo": 1291,
      "icyi": 1292,
      "isu": 1293,
      "yon": 1294,
      "es": 1295,
      "ruba": 1296,
      "##google": 1297,
      "ntara": 1298,
      "adsby": 1299,
      "adsbygoogle": 1300,
      "##fashwe": 1301,
      "umusingi": 1302,
      "##koreshwa": 1303,
      "##riwe": 1304,
      "ac": 1305,
      "kigo": 1306,
      "fe": 1307,
      "##bwenge": 1308,
      "##buka": 1309,
      "amazina": 1310,
      "nama": 1311,
      "##fungu": 1312,
      "kumenya": 1313,
      "kom": 1314,
      "tw": 1315,
      "yakomeje": 1316,
      "ingu": 1317,
      "##kara": 1318,
      "##ck": 1319,
      "##ity": 1320,
      "nkuko": 1321,
      "##zere": 1322,
      "##kunga": 1323,
      "kwezi": 1324,
      "ibyaha": 1325,
      "##uka": 1326,
      "##hamwe": 1327,
      "bahu": 1328,
      "##ganyi": 1329,
      "birimo": 1330,
      "bitewe": 1331,
      "repubu": 1332,
      "##kwira": 1333,
      "##rwego": 1334,
      "babo": 1335,
      "bazi": 1336,
      "views": 1337,
      "abagabo": 1338,
      "usanga": 1339,
      "##rimi": 1340,
      "inyuma": 1341,
      "##paka": 1342,
      "baki": 1343,
      "##fana": 1344,
      "mba": 1345,
      "cyi": 1346,
      "ubutegetsi": 1347,
      "kwita": 1348,
      "bikaba": 1349,
      "##renganzira": 1350,
      "abakobwa": 1351,
      "##itsina": 1352,
      "this": 1353,
      "##unze": 1354,
      "##zani": 1355,
      "kure": 1356,
      "uga": 1357,
      "##can": 1358,
      "ingaruka": 1359,
      "isoko": 1360,
      "##kunzi": 1361,
      "##yari": 1362,
      "buta": 1363,
      "##shingiye": 1364,
      "##garagaje": 1365,
      "gushaka": 1366,
      "##shoboye": 1367,
      "imo": 1368,
      "kurwanya": 1369,
      "icyorezo": 1370,
      "kuvuga": 1371,
      "##banda": 1372,
      "iby": 1373,
      "##goro": 1374,
      "##menyetso": 1375,
      "ikinyamakuru": 1376,
      "nza": 1377,
      "itangazamakuru": 1378,
      "repubulika": 1379,
      "niyo": 1380,
      "ntiba": 1381,
      "twe": 1382,
      "ubushobozi": 1383,
      "##rwayi": 1384,
      "menshi": 1385,
      "bika": 1386,
      "##iton": 1387,
      "kuyi": 1388,
      "##tanze": 1389,
      "bihe": 1390,
      "abe": 1391,
      "shampi": 1392,
      "##ramu": 1393,
      "ikaba": 1394,
      "inda": 1395,
      "##itabo": 1396,
      "guve": 1397,
      "##mbaga": 1398,
      "imodoka": 1399,
      "gukomeza": 1400,
      "bate": 1401,
      "##koresho": 1402,
      "ngombwa": 1403,
      "kenya": 1404,
      "##vura": 1405,
      "iya": 1406,
      "byiza": 1407,
      "##habwa": 1408,
      "##ditse": 1409,
      "zitan": 1410,
      "##shingano": 1411,
      "##vo": 1412,
      "inde": 1413,
      "nte": 1414,
      "lo": 1415,
      "kugirango": 1416,
      "inkuru": 1417,
      "##sig": 1418,
      "minsi": 1419,
      "##hungu": 1420,
      "##yemezo": 1421,
      "iga": 1422,
      "bati": 1423,
      "mwe": 1424,
      "yahise": 1425,
      "urwego": 1426,
      "ababyeyi": 1427,
      "africa": 1428,
      "buzima": 1429,
      "yabwiye": 1430,
      "kana": 1431,
      "ex": 1432,
      "##shyaka": 1433,
      "bada": 1434,
      "##shoboka": 1435,
      "yitwa": 1436,
      "not": 1437,
      "ahantu": 1438,
      "seri": 1439,
      "##keneye": 1440,
      "ada": 1441,
      "##yongera": 1442,
      "##meze": 1443,
      "bimwe": 1444,
      "##bikorwa": 1445,
      "bibili": 1446,
      "ij": 1447,
      "##yona": 1448,
      "##kera": 1449,
      "inter": 1450,
      "bibiliya": 1451,
      "##yamama": 1452,
      "##mes": 1453,
      "burundi": 1454,
      "##jira": 1455,
      "will": 1456,
      "ubukungu": 1457,
      "imari": 1458,
      "bituma": 1459,
      "ali": 1460,
      "urukundo": 1461,
      "intara": 1462,
      "##tero": 1463,
      "##che": 1464,
      "kuwa": 1465,
      "##ble": 1466,
      "##ino": 1467,
      "##tal": 1468,
      "##mban": 1469,
      "##visi": 1470,
      "uburenganzira": 1471,
      "##fatanya": 1472,
      "##shyigi": 1473,
      "##subiza": 1474,
      "##shyan": 1475,
      "muse": 1476,
      "##ria": 1477,
      "21": 1478,
      "id": 1479,
      "sen": 1480,
      "##ona": 1481,
      "shampiyona": 1482,
      "amanota": 1483,
      "##gamije": 1484,
      "##tsa": 1485,
      "1994": 1486,
      "##hagara": 1487,
      "bagera": 1488,
      "##shatsi": 1489,
      "umunyamabanga": 1490,
      "##genge": 1491,
      "##mbura": 1492,
      "ubucuruzi": 1493,
      "cha": 1494,
      "icyaha": 1495,
      "tv": 1496,
      "inzo": 1497,
      "hejuru": 1498,
      "##us": 1499,
      "mugabo": 1500,
      "amahirwe": 1501,
      "mwanya": 1502,
      "itu": 1503,
      "##rizwa": 1504,
      "##shakashatsi": 1505,
      "kumwe": 1506,
      "gufata": 1507,
      "##jije": 1508,
      "fla": 1509,
      "politi": 1510,
      "yamu": 1511,
      "##kurikira": 1512,
      "##yemo": 1513,
      "abanyamakuru": 1514,
      "umurenge": 1515,
      "frw": 1516,
      "bijyanye": 1517,
      "ako": 1518,
      "##ruguru": 1519,
      "gen": 1520,
      "yatangaje": 1521,
      "##gije": 1522,
      "##pite": 1523,
      "guta": 1524,
      "24": 1525,
      "aki": 1526,
      "yabaye": 1527,
      "ubumenyi": 1528,
      "##gamba": 1529,
      "##dana": 1530,
      "zose": 1531,
      "kubaka": 1532,
      "##umu": 1533,
      "gukoresha": 1534,
      "##kuba": 1535,
      "##kereza": 1536,
      "kipe": 1537,
      "ade": 1538,
      "imirimo": 1539,
      "ana": 1540,
      "##kire": 1541,
      "##rukiya": 1542,
      "ibiro": 1543,
      "##meye": 1544,
      "##gh": 1545,
      "##inya": 1546,
      "##fatanye": 1547,
      "##ano": 1548,
      "binyu": 1549,
      "hose": 1550,
      "##ar": 1551,
      "##gabane": 1552,
      "congo": 1553,
      "that": 1554,
      "uw": 1555,
      "##ndu": 1556,
      "mutara": 1557,
      "ubutumwa": 1558,
      "amasezerano": 1559,
      "ibigo": 1560,
      "##hamya": 1561,
      "itsinda": 1562,
      "gatanu": 1563,
      "tanzani": 1564,
      "nayo": 1565,
      "mura": 1566,
      "ese": 1567,
      "hano": 1568,
      "##ssi": 1569,
      "ashobora": 1570,
      "igice": 1571,
      "##dugu": 1572,
      "turi": 1573,
      "##injira": 1574,
      "imy": 1575,
      "##bon": 1576,
      "bida": 1577,
      "##torero": 1578,
      "kazi": 1579,
      "ch": 1580,
      "umupira": 1581,
      "##hangana": 1582,
      "##genzu": 1583,
      "##sen": 1584,
      "ukubo": 1585,
      "##zana": 1586,
      "##boneka": 1587,
      "##mena": 1588,
      "##bara": 1589,
      "yagiye": 1590,
      "atu": 1591,
      "kiri": 1592,
      "##les": 1593,
      "nzu": 1594,
      "wu": 1595,
      "##mb": 1596,
      "umuco": 1597,
      "yaje": 1598,
      "ura": 1599,
      "##hariko": 1600,
      "kane": 1601,
      "##pfuye": 1602,
      "##kazi": 1603,
      "flash": 1604,
      "##itaramo": 1605,
      "##bc": 1606,
      "##maga": 1607,
      "##dugudu": 1608,
      "publi": 1609,
      "gato": 1610,
      "##kanga": 1611,
      "##suzu": 1612,
      "##giza": 1613,
      "comment": 1614,
      "##garu": 1615,
      "##zuro": 1616,
      "##rekana": 1617,
      "nyira": 1618,
      "udu": 1619,
      "##girwa": 1620,
      "##higo": 1621,
      "##banze": 1622,
      "##sabwa": 1623,
      "dore": 1624,
      "##ser": 1625,
      "##sigiti": 1626,
      "##shusho": 1627,
      "uretse": 1628,
      "ce": 1629,
      "##nze": 1630,
      "##sigaye": 1631,
      "##poli": 1632,
      "nyan": 1633,
      "gutera": 1634,
      "##rangwa": 1635,
      "##tswe": 1636,
      "bye": 1637,
      "byaba": 1638,
      "##kaza": 1639,
      "##shyantare": 1640,
      "bagomba": 1641,
      "##oma": 1642,
      "##sta": 1643,
      "##kanya": 1644,
      "22": 1645,
      "yatangiye": 1646,
      "zunze": 1647,
      "yakoze": 1648,
      "ibyi": 1649,
      "imiryango": 1650,
      "##jambo": 1651,
      "##saga": 1652,
      "umwami": 1653,
      "yombi": 1654,
      "gashyantare": 1655,
      "kongera": 1656,
      "##joro": 1657,
      "ruta": 1658,
      "ukwe": 1659,
      "amateka": 1660,
      "##kurikirana": 1661,
      "abanyeshuri": 1662,
      "##ks": 1663,
      "gutu": 1664,
      "kibuga": 1665,
      "##zera": 1666,
      "##geje": 1667,
      "##bs": 1668,
      "##banje": 1669,
      "gufasha": 1670,
      "##bereho": 1671,
      "umwan": 1672,
      "##ld": 1673,
      "cla": 1674,
      "umuvugizi": 1675,
      "##haga": 1676,
      "##hara": 1677,
      "igikombe": 1678,
      "##shatse": 1679,
      "or": 1680,
      "umubare": 1681,
      "##rinoma": 1682,
      "##gizwe": 1683,
      "nshu": 1684,
      "umunya": 1685,
      "##itsi": 1686,
      "##sco": 1687,
      "zitandukanye": 1688,
      "indege": 1689,
      "23": 1690,
      "##indu": 1691,
      "##tions": 1692,
      "musanze": 1693,
      "ibu": 1694,
      "amakipe": 1695,
      "##rusi": 1696,
      "umwihariko": 1697,
      "guverinoma": 1698,
      "##guri": 1699,
      "##dre": 1700,
      "##kub": 1701,
      "ijambo": 1702,
      "##ith": 1703,
      "##korerwa": 1704,
      "adepr": 1705,
      "tuza": 1706,
      "babiri": 1707,
      "ntu": 1708,
      "##ted": 1709,
      "bajya": 1710,
      "mutarama": 1711,
      "##rurwe": 1712,
      "yabi": 1713,
      "##itanye": 1714,
      "##ganye": 1715,
      "umutwe": 1716,
      "uwi": 1717,
      "##mbwe": 1718,
      "agiye": 1719,
      "2016": 1720,
      "umubiri": 1721,
      "kiganiro": 1722,
      "##inga": 1723,
      "##rea": 1724,
      "##hango": 1725,
      "umuhanzi": 1726,
      "##rwan": 1727,
      "##shora": 1728,
      "werurwe": 1729,
      "mwiza": 1730,
      "##hano": 1731,
      "##gambi": 1732,
      "ite": 1733,
      "##sobanura": 1734,
      "##yumba": 1735,
      "ishami": 1736,
      "ukwa": 1737,
      "cu": 1738,
      "##mini": 1739,
      "baturage": 1740,
      "kita": 1741,
      "##saha": 1742,
      "serivisi": 1743,
      "##the": 1744,
      "##ganyijwe": 1745,
      "##polisi": 1746,
      "ejo": 1747,
      "##rabu": 1748,
      "##ms": 1749,
      "bagenzi": 1750,
      "komi": 1751,
      "umurwa": 1752,
      "##rine": 1753,
      "intwa": 1754,
      "##giro": 1755,
      "koko": 1756,
      "ate": 1757,
      "##sozi": 1758,
      "##yimana": 1759,
      "iryo": 1760,
      "ikintu": 1761,
      "##hereza": 1762,
      "wawe": 1763,
      "nziza": 1764,
      "itariki": 1765,
      "100": 1766,
      "lin": 1767,
      "rwose": 1768,
      "kiza": 1769,
      "nuko": 1770,
      "##dika": 1771,
      "gatandatu": 1772,
      "##gwe": 1773,
      "njye": 1774,
      "ida": 1775,
      "bikomeye": 1776,
      "##cya": 1777,
      "##rangira": 1778,
      "amabwiriza": 1779,
      "police": 1780,
      "ingamba": 1781,
      "##shyamba": 1782,
      "inka": 1783,
      "kuvu": 1784,
      "##yumvi": 1785,
      "##mero": 1786,
      "##maro": 1787,
      "##garuka": 1788,
      "imp": 1789,
      "win": 1790,
      "dufite": 1791,
      "bro": 1792,
      "wabo": 1793,
      "ibihe": 1794,
      "##hindura": 1795,
      "time": 1796,
      "san": 1797,
      "##muga": 1798,
      "##hunga": 1799,
      "ukuboza": 1800,
      "iwa": 1801,
      "gikorwa": 1802,
      "26": 1803,
      "ukun": 1804,
      "umusigiti": 1805,
      "nshya": 1806,
      "##reye": 1807,
      "it": 1808,
      "pre": 1809,
      "miss": 1810,
      "##ting": 1811,
      "bigo": 1812,
      "ukwezi": 1813,
      "ururimi": 1814,
      "##kije": 1815,
      "urugero": 1816,
      "pi": 1817,
      "##son": 1818,
      "amagambo": 1819,
      "bishobora": 1820,
      "##yumweru": 1821,
      "##yenda": 1822,
      "guteza": 1823,
      "2021": 1824,
      "cyose": 1825,
      "umutoza": 1826,
      "ubusa": 1827,
      "##mbaye": 1828,
      "##tional": 1829,
      "gitu": 1830,
      "##soro": 1831,
      "em": 1832,
      "bashaka": 1833,
      "##fungwa": 1834,
      "bake": 1835,
      "biro": 1836,
      "umunyamakuru": 1837,
      "##buze": 1838,
      "kumva": 1839,
      "##cye": 1840,
      "ahandi": 1841,
      "##rozi": 1842,
      "ntacyo": 1843,
      "ushobora": 1844,
      "amafoto": 1845,
      "ibikoresho": 1846,
      "myiza": 1847,
      "zabo": 1848,
      "kureba": 1849,
      "##hawe": 1850,
      "##der": 1851,
      "##kirwa": 1852,
      "##biriye": 1853,
      "your": 1854,
      "des": 1855,
      "nke": 1856,
      "##kosa": 1857,
      "##buto": 1858,
      "##yine": 1859,
      "##dy": 1860,
      "##razi": 1861,
      "amezi": 1862,
      "rwan": 1863,
      "muzi": 1864,
      "##basha": 1865,
      "inkunga": 1866,
      "imiti": 1867,
      "igitego": 1868,
      "bitaro": 1869,
      "##dura": 1870,
      "bato": 1871,
      "inyungu": 1872,
      "##koresheje": 1873,
      "##ranyije": 1874,
      "ruhande": 1875,
      "##veni": 1876,
      "ntibi": 1877,
      "##for": 1878,
      "akomeza": 1879,
      "##bert": 1880,
      "yesu": 1881,
      "sh": 1882,
      "imaze": 1883,
      "yate": 1884,
      "##yaga": 1885,
      "amara": 1886,
      "umukuru": 1887,
      "bivugwa": 1888,
      "##bizi": 1889,
      "##kani": 1890,
      "##subira": 1891,
      "itorero": 1892,
      "##itswe": 1893,
      "amatora": 1894,
      "##lement": 1895,
      "ngu": 1896,
      "##lla": 1897,
      "tanzania": 1898,
      "##reje": 1899,
      "##rekeza": 1900,
      "##tonde": 1901,
      "##ranyi": 1902,
      "##giranye": 1903,
      "bashobora": 1904,
      "##hn": 1905,
      "##ces": 1906,
      "##ase": 1907,
      "wor": 1908,
      "iti": 1909,
      "##tes": 1910,
      "yasabye": 1911,
      "##ked": 1912,
      "bayi": 1913,
      "inshingano": 1914,
      "50": 1915,
      "vuba": 1916,
      "##rwaho": 1917,
      "##byiri": 1918,
      "##twi": 1919,
      "inteko": 1920,
      "mikino": 1921,
      "tuba": 1922,
      "##perative": 1923,
      "##shinwa": 1924,
      "##kisha": 1925,
      "kuzi": 1926,
      "maso": 1927,
      "##yumva": 1928,
      "##bayeho": 1929,
      "bwana": 1930,
      "qu": 1931,
      "abafana": 1932,
      "##siye": 1933,
      "epfo": 1934,
      "komisiyo": 1935,
      "maga": 1936,
      "##shyin": 1937,
      "with": 1938,
      "umutima": 1939,
      "##herutse": 1940,
      "isan": 1941,
      "bun": 1942,
      "ire": 1943,
      "##itondo": 1944,
      "you": 1945,
      "27": 1946,
      "rubavu": 1947,
      "##aba": 1948,
      "amaguru": 1949,
      "sha": 1950,
      "##cha": 1951,
      "##pp": 1952,
      "##zine": 1953,
      "ruswa": 1954,
      "john": 1955,
      "##yita": 1956,
      "##rereza": 1957,
      "##buye": 1958,
      "ashaka": 1959,
      "ingo": 1960,
      "museveni": 1961,
      "##mewe": 1962,
      "##nu": 1963,
      "yita": 1964,
      "kuta": 1965,
      "bwabo": 1966,
      "kayi": 1967,
      "##rama": 1968,
      "gicurasi": 1969,
      "##shinjacyaha": 1970,
      "##xt": 1971,
      "##muka": 1972,
      "bosco": 1973,
      "byan": 1974,
      "##sura": 1975,
      "##shyushye": 1976,
      "28": 1977,
      "ibitego": 1978,
      "##gra": 1979,
      "kuki": 1980,
      "kanama": 1981,
      "##sira": 1982,
      "##itozo": 1983,
      "ebyiri": 1984,
      "##shijwe": 1985,
      "##uel": 1986,
      "kire": 1987,
      "nze": 1988,
      "##garagaye": 1989,
      "igitekerezo": 1990,
      "zirimo": 1991,
      "pla": 1992,
      "##nde": 1993,
      "kare": 1994,
      "inshuti": 1995,
      "umurimo": 1996,
      "kwishyura": 1997,
      "banki": 1998,
      "##tte": 1999,
      "imibereho": 2000,
      "##shanya": 2001,
      "##twaye": 2002,
      "##korere": 2003,
      "##shyingo": 2004,
      "ibisi": 2005,
      "andi": 2006,
      "##senga": 2007,
      "##yanya": 2008,
      "ndirimbo": 2009,
      "ziri": 2010,
      "##ongera": 2011,
      "ajya": 2012,
      "##sera": 2013,
      "abata": 2014,
      "##yoboye": 2015,
      "##zimana": 2016,
      "hanyuma": 2017,
      "uzi": 2018,
      "##ons": 2019,
      "she": 2020,
      "cyorezo": 2021,
      "imiyobo": 2022,
      "ibanze": 2023,
      "##risto": 2024,
      "ishyaka": 2025,
      "ingingo": 2026,
      "nzego": 2027,
      "##itero": 2028,
      "##duye": 2029,
      "hasi": 2030,
      "ipe": 2031,
      "##ol": 2032,
      "pas": 2033,
      "nyamara": 2034,
      "##quire": 2035,
      "##pho": 2036,
      "##roshye": 2037,
      "kamena": 2038,
      "##ane": 2039,
      "kuru": 2040,
      "##itwe": 2041,
      "cyongereza": 2042,
      "icu": 2043,
      "##komoka": 2044,
      "ishize": 2045,
      "ukwakira": 2046,
      "##shed": 2047,
      "##gurira": 2048,
      "gace": 2049,
      "##ruwa": 2050,
      "##rie": 2051,
      "politiki": 2052,
      "make": 2053,
      "bbc": 2054,
      "kwica": 2055,
      "rubuga": 2056,
      "name": 2057,
      "ubutabera": 2058,
      "##shake": 2059,
      "ushize": 2060,
      "require": 2061,
      "##jyaruguru": 2062,
      "##jyepfo": 2063,
      "burayi": 2064,
      "miliyari": 2065,
      "irushanwa": 2066,
      "##tel": 2067,
      "webs": 2068,
      "guhera": 2069,
      "sin": 2070,
      "2015": 2071,
      "yanyu": 2072,
      "ibisigo": 2073,
      "wanjye": 2074,
      "mugi": 2075,
      "save": 2076,
      "akora": 2077,
      "##rangiye": 2078,
      "website": 2079,
      "##heruka": 2080,
      "##gendera": 2081,
      "total": 2082,
      "next": 2083,
      "##kubi": 2084,
      "##jwi": 2085,
      "##hiriza": 2086,
      "##gwi": 2087,
      "mbi": 2088,
      "wen": 2089,
      "igikorwa": 2090,
      "##rimana": 2091,
      "ugushyingo": 2092,
      "agomba": 2093,
      "ple": 2094,
      "##dow": 2095,
      "zari": 2096,
      "addre": 2097,
      "##jijwe": 2098,
      "##canyi": 2099,
      "##ners": 2100,
      "##ut": 2101,
      "##seri": 2102,
      "tru": 2103,
      "##mya": 2104,
      "bacu": 2105,
      "mutwe": 2106,
      "##yobya": 2107,
      "##soma": 2108,
      "##ron": 2109,
      "##ph": 2110,
      "##teri": 2111,
      "##id": 2112,
      "##hinduka": 2113,
      "##cto": 2114,
      "buge": 2115,
      "par": 2116,
      "##tribu": 2117,
      "##itwara": 2118,
      "brow": 2119,
      "nari": 2120,
      "##gabanya": 2121,
      "amahanga": 2122,
      "##gue": 2123,
      "##sanzu": 2124,
      "##yandiko": 2125,
      "ibura": 2126,
      "##hariye": 2127,
      "##geye": 2128,
      "musa": 2129,
      "abafite": 2130,
      "##ganwa": 2131,
      "ubutaka": 2132,
      "##baba": 2133,
      "uda": 2134,
      "##sumbuye": 2135,
      "telef": 2136,
      "address": 2137,
      "mutu": 2138,
      "rye": 2139,
      "ashyushye": 2140,
      "##swe": 2141,
      "##ture": 2142,
      "lea": 2143,
      "ijoro": 2144,
      "##tangwa": 2145,
      "##manuel": 2146,
      "bibazo": 2147,
      "inzira": 2148,
      "intebe": 2149,
      "mwana": 2150,
      "##subizo": 2151,
      "nyakanga": 2152,
      "##rimu": 2153,
      "iy": 2154,
      "##rita": 2155,
      "irimo": 2156,
      "urwo": 2157,
      "zita": 2158,
      "##itiye": 2159,
      "##byara": 2160,
      "kurya": 2161,
      "makuru": 2162,
      "mafaranga": 2163,
      "docu": 2164,
      "##kurikiran": 2165,
      "ubuhinzi": 2166,
      "kugu": 2167,
      "##ziya": 2168,
      "required": 2169,
      "binyuze": 2170,
      "les": 2171,
      "itatu": 2172,
      "haza": 2173,
      "fili": 2174,
      "##ct": 2175,
      "ibimenyetso": 2176,
      "kuzamu": 2177,
      "##wita": 2178,
      "##tandu": 2179,
      "nzira": 2180,
      "asaba": 2181,
      "yavu": 2182,
      "##vandi": 2183,
      "##ball": 2184,
      "##merewe": 2185,
      "ingenzi": 2186,
      "##rou": 2187,
      "##kesha": 2188,
      "nyu": 2189,
      "##kwiriye": 2190,
      "rd": 2191,
      "##shimwe": 2192,
      "fiel": 2193,
      "##genewe": 2194,
      "emmanuel": 2195,
      "##gaga": 2196,
      "baje": 2197,
      "ntiya": 2198,
      "##inota": 2199,
      "##con": 2200,
      "##bano": 2201,
      "##cent": 2202,
      "ahita": 2203,
      "intambara": 2204,
      "ihu": 2205,
      "##kundana": 2206,
      "##bire": 2207,
      "ayi": 2208,
      "bintu": 2209,
      "muhanda": 2210,
      "##rangiza": 2211,
      "##lia": 2212,
      "inshuro": 2213,
      "gukorera": 2214,
      "##tat": 2215,
      "published": 2216,
      "intera": 2217,
      "nshuro": 2218,
      "links": 2219,
      "##rura": 2220,
      "##shishi": 2221,
      "enter": 2222,
      "uni": 2223,
      "##kini": 2224,
      "amaraso": 2225,
      "mana": 2226,
      "arimo": 2227,
      "##herereye": 2228,
      "browser": 2229,
      "##lin": 2230,
      "push": 2231,
      "guku": 2232,
      "giti": 2233,
      "bare": 2234,
      "yacu": 2235,
      "mugenzi": 2236,
      "amado": 2237,
      "##vandimwe": 2238,
      "##tyo": 2239,
      "marked": 2240,
      "bagize": 2241,
      "fields": 2242,
      "##zeye": 2243,
      "kenshi": 2244,
      "##buza": 2245,
      "##genza": 2246,
      "document": 2247,
      "##meje": 2248,
      "umuriro": 2249,
      "atanga": 2250,
      "##shyirahamwe": 2251,
      "window": 2252,
      "umukinnyi": 2253,
      "am": 2254,
      "abasirikare": 2255,
      "29": 2256,
      "gukina": 2257,
      "##ty": 2258,
      "##rangije": 2259,
      "please": 2260,
      "itanu": 2261,
      "byatumye": 2262,
      "ah": 2263,
      "##koro": 2264,
      "umukozi": 2265,
      "mugore": 2266,
      "gasa": 2267,
      "guhangana": 2268,
      "##kandi": 2269,
      "nabyo": 2270,
      "wowe": 2271,
      "muta": 2272,
      "yamaze": 2273,
      "iperereza": 2274,
      "buda": 2275,
      "rumwe": 2276,
      "##jwa": 2277,
      "stade": 2278,
      "mashuri": 2279,
      "##fitanye": 2280,
      "##hinda": 2281,
      "muganga": 2282,
      "##cy": 2283,
      "zimwe": 2284,
      "yahawe": 2285,
      "siporo": 2286,
      "urubanza": 2287,
      "##rwaye": 2288,
      "urugo": 2289,
      "umwuka": 2290,
      "muha": 2291,
      "##zuye": 2292,
      "niwe": 2293,
      "##tribute": 2294,
      "dan": 2295,
      "nyarwanda": 2296,
      "amavubi": 2297,
      "lu": 2298,
      "##guti": 2299,
      "huye": 2300,
      "##zanyo": 2301,
      "gisirikare": 2302,
      "burundu": 2303,
      "##goroba": 2304,
      "umunyarwanda": 2305,
      "ci": 2306,
      "##girije": 2307,
      "##ral": 2308,
      "yawe": 2309,
      "intego": 2310,
      "##curuza": 2311,
      "ibiganiro": 2312,
      "umutungo": 2313,
      "bugesera": 2314,
      "##kuri": 2315,
      "ubushakashatsi": 2316,
      "##mije": 2317,
      "##ranyambaga": 2318,
      "##geraho": 2319,
      "##mpa": 2320,
      "batuye": 2321,
      "##yobyabwenge": 2322,
      "##toki": 2323,
      "ibitekerezo": 2324,
      "noneho": 2325,
      "##huye": 2326,
      "kaba": 2327,
      "kiba": 2328,
      "muhanga": 2329,
      "##hagarariye": 2330,
      "imu": 2331,
      "bakoze": 2332,
      "##kemura": 2333,
      "nyina": 2334,
      "ziba": 2335,
      "mukobwa": 2336,
      "aku": 2337,
      "rib": 2338,
      "lt": 2339,
      "gitondo": 2340,
      "##diri": 2341,
      "##fashije": 2342,
      "##shinjwa": 2343,
      "##genzura": 2344,
      "dia": 2345,
      "gete": 2346,
      "setat": 2347,
      "##lementbyi": 2348,
      "getelementbyi": 2349,
      "setattribute": 2350,
      "40": 2351,
      "##fitiye": 2352,
      "cyari": 2353,
      "##rimba": 2354,
      "hakaba": 2355,
      "icyizere": 2356,
      "##bije": 2357,
      "por": 2358,
      "sc": 2359,
      "##sohoka": 2360,
      "##zihi": 2361,
      "waba": 2362,
      "99i": 2363,
      "##tanzwe": 2364,
      "bibiri": 2365,
      "##cal": 2366,
      "31": 2367,
      "##cial": 2368,
      "##giwe": 2369,
      "##depite": 2370,
      "trump": 2371,
      "##shima": 2372,
      "##kiza": 2373,
      "st": 2374,
      "inyama": 2375,
      "imbabazi": 2376,
      "ea": 2377,
      "umushinga": 2378,
      "banners": 2379,
      "ariyo": 2380,
      "umuhungu": 2381,
      "byabo": 2382,
      "##gombaga": 2383,
      "gutwara": 2384,
      "##hagije": 2385,
      "##minis": 2386,
      "ubwoba": 2387,
      "nyaru": 2388,
      "kura": 2389,
      "yana": 2390,
      "chi": 2391,
      "##kinira": 2392,
      "##yeli": 2393,
      "##shiman": 2394,
      "magazine": 2395,
      "##sse": 2396,
      "bakiri": 2397,
      "##shanyarazi": 2398,
      "mfite": 2399,
      "ben": 2400,
      "itangazo": 2401,
      "imbo": 2402,
      "##biligi": 2403,
      "hirya": 2404,
      "nibyo": 2405,
      "##shakanye": 2406,
      "##onal": 2407,
      "##shingwa": 2408,
      "bwiza": 2409,
      "##ubu": 2410,
      "##nshi": 2411,
      "wun": 2412,
      "akamaro": 2413,
      "##shishika": 2414,
      "iteka": 2415,
      "##kuye": 2416,
      "##cwa": 2417,
      "##rize": 2418,
      "slo": 2419,
      "##kane": 2420,
      "umaze": 2421,
      "vo": 2422,
      "abakiri": 2423,
      "##kwaho": 2424,
      "mada": 2425,
      "ishobora": 2426,
      "yayo": 2427,
      "##roko": 2428,
      "##gena": 2429,
      "##mvikana": 2430,
      "ine": 2431,
      "##mijwe": 2432,
      "umusore": 2433,
      "##ited": 2434,
      "eric": 2435,
      "ibita": 2436,
      "##koreshe": 2437,
      "imvura": 2438,
      "##itter": 2439,
      "##magara": 2440,
      "##kubita": 2441,
      "##hira": 2442,
      "ukuntu": 2443,
      "urupfu": 2444,
      "nkoranyambaga": 2445,
      "bigaragara": 2446,
      "##vier": 2447,
      "abahanzi": 2448,
      "##kenshi": 2449,
      "akana": 2450,
      "##rengerazuba": 2451,
      "##stin": 2452,
      "abu": 2453,
      "nyaga": 2454,
      "ndwara": 2455,
      "star": 2456,
      "biru": 2457,
      "runa": 2458,
      "umubyeyi": 2459,
      "rusi": 2460,
      "turukiya": 2461,
      "icyemezo": 2462,
      "kuyobora": 2463,
      "bin": 2464,
      "yaho": 2465,
      "##induka": 2466,
      "bageze": 2467,
      "yatu": 2468,
      "ibin": 2469,
      "##tic": 2470,
      "babona": 2471,
      "kira": 2472,
      "##hiro": 2473,
      "bifite": 2474,
      "impa": 2475,
      "bayobozi": 2476,
      "impano": 2477,
      "nyanza": 2478,
      "##hitamo": 2479,
      "ngingo": 2480,
      "umuzi": 2481,
      "##zanye": 2482,
      "akenshi": 2483,
      "yashyize": 2484,
      "ukaba": 2485,
      "bagira": 2486,
      "kubaho": 2487,
      "nzeri": 2488,
      "ndu": 2489,
      "##shyizwe": 2490,
      "muza": 2491,
      "##enge": 2492,
      "##bonetse": 2493,
      "kwakira": 2494,
      "##yamamare": 2495,
      "##huti": 2496,
      "kugenda": 2497,
      "##bimana": 2498,
      "turere": 2499,
      "##jyanama": 2500,
      "amashanyarazi": 2501,
      "##ritse": 2502,
      "##muryango": 2503,
      "imyitozo": 2504,
      "##minisitiri": 2505,
      "hino": 2506,
      "ibiza": 2507,
      "ubukwe": 2508,
      "bwan": 2509,
      "ubi": 2510,
      "##boko": 2511,
      "amba": 2512,
      "batangiye": 2513,
      "kiyo": 2514,
      "##shyizweho": 2515,
      "nt": 2516,
      "##rugendo": 2517,
      "two": 2518,
      "imibare": 2519,
      "kera": 2520,
      "kwigisha": 2521,
      "##yangombwa": 2522,
      "sida": 2523,
      "##moko": 2524,
      "kuda": 2525,
      "##deri": 2526,
      "##rican": 2527,
      "kiz": 2528,
      "##red": 2529,
      "##hugurwa": 2530,
      "agera": 2531,
      "##cco": 2532,
      "uriya": 2533,
      "##kiriye": 2534,
      "bufaransa": 2535,
      "##bangami": 2536,
      "nige": 2537,
      "gishinzwe": 2538,
      "baku": 2539,
      "ijana": 2540,
      "##rwana": 2541,
      "magambo": 2542,
      "yatsinze": 2543,
      "imyi": 2544,
      "twari": 2545,
      "twitter": 2546,
      "mihigo": 2547,
      "byara": 2548,
      "abiri": 2549,
      "tuka": 2550,
      "##rom": 2551,
      "ishinga": 2552,
      "amashusho": 2553,
      "sy": 2554,
      "##shyigikira": 2555,
      "kon": 2556,
      "##sese": 2557,
      "##shoramari": 2558,
      "##ditswe": 2559,
      "##lli": 2560,
      "bwoko": 2561,
      "bombi": 2562,
      "##rwo": 2563,
      "chan": 2564,
      "bahawe": 2565,
      "##hereye": 2566,
      "##gabe": 2567,
      "munota": 2568,
      "ser": 2569,
      "##kikije": 2570,
      "ababa": 2571,
      "##manza": 2572,
      "ingendo": 2573,
      "gereza": 2574,
      "ute": 2575,
      "##sengero": 2576,
      "uwitwa": 2577,
      "ubumuga": 2578,
      "urugendo": 2579,
      "ariwe": 2580,
      "##mezo": 2581,
      "was": 2582,
      "amasomo": 2583,
      "mahanga": 2584,
      "umukunzi": 2585,
      "##yamba": 2586,
      "new": 2587,
      "wungirije": 2588,
      "##kerarugendo": 2589,
      "azaba": 2590,
      "##gurisha": 2591,
      "kinini": 2592,
      "runaka": 2593,
      "##mama": 2594,
      "umuturage": 2595,
      "umuti": 2596,
      "amasaha": 2597,
      "nibura": 2598,
      "##fatanyije": 2599,
      "##yani": 2600,
      "##ys": 2601,
      "##tegan": 2602,
      "batatu": 2603,
      "gutsinda": 2604,
      "##am": 2605,
      "sita": 2606,
      "##ction": 2607,
      "##hinga": 2608,
      "ziza": 2609,
      "muda": 2610,
      "##genze": 2611,
      "##huje": 2612,
      "##ther": 2613,
      "bayo": 2614,
      "buba": 2615,
      "mirongo": 2616,
      "iwabo": 2617,
      "##kingo": 2618,
      "##onga": 2619,
      "##kiwe": 2620,
      "ubushinjacyaha": 2621,
      "gifite": 2622,
      "##yonge": 2623,
      "##sirazuba": 2624,
      "##funga": 2625,
      "##tari": 2626,
      "bitanga": 2627,
      "th": 2628,
      "##kiro": 2629,
      "bene": 2630,
      "kub": 2631,
      "uti": 2632,
      "yumva": 2633,
      "##hoho": 2634,
      "butumwa": 2635,
      "modoka": 2636,
      "##bunga": 2637,
      "##mokarasi": 2638,
      "bindi": 2639,
      "500": 2640,
      "getelementbyid": 2641,
      "mudugudu": 2642,
      "##mure": 2643,
      "ubuvu": 2644,
      "clu": 2645,
      "kari": 2646,
      "mubi": 2647,
      "##garutse": 2648,
      "##hame": 2649,
      "##gufi": 2650,
      "kiyovu": 2651,
      "##bonano": 2652,
      "##sana": 2653,
      "bagi": 2654,
      "##zungu": 2655,
      "kinya": 2656,
      "raporo": 2657,
      "inguzanyo": 2658,
      "izaba": 2659,
      "imbuto": 2660,
      "batandukanye": 2661,
      "yata": 2662,
      "iminota": 2663,
      "hashize": 2664,
      "muhanzi": 2665,
      "##pimo": 2666,
      "intege": 2667,
      "##com": 2668,
      "tra": 2669,
      "##zongera": 2670,
      "pariki": 2671,
      "asi": 2672,
      "##lly": 2673,
      "##muri": 2674,
      "ai": 2675,
      "komite": 2676,
      "##shira": 2677,
      "ubwoko": 2678,
      "##shyiraho": 2679,
      "ryi": 2680,
      "abagize": 2681,
      "alide": 2682,
      "##muntu": 2683,
      "abona": 2684,
      "demokarasi": 2685,
      "##wite": 2686,
      "##tanyi": 2687,
      "mpan": 2688,
      "nanone": 2689,
      "ubwenge": 2690,
      "pier": 2691,
      "ukwi": 2692,
      "ugasanga": 2693,
      "##mon": 2694,
      "##shahara": 2695,
      "##yubako": 2696,
      "iburasirazuba": 2697,
      "##furika": 2698,
      "gito": 2699,
      "amavuko": 2700,
      "uzwi": 2701,
      "kizito": 2702,
      "##yemeza": 2703,
      "matora": 2704,
      "##frw": 2705,
      "haki": 2706,
      "naba": 2707,
      "##ten": 2708,
      "from": 2709,
      "gutuma": 2710,
      "ingufu": 2711,
      "impanuka": 2712,
      "ure": 2713,
      "nshingwa": 2714,
      "myinshi": 2715,
      "guhabwa": 2716,
      "gucu": 2717,
      "ferwa": 2718,
      "##tini": 2719,
      "has": 2720,
      "##rali": 2721,
      "batanga": 2722,
      "##kenewe": 2723,
      "##op": 2724,
      "abenshi": 2725,
      "kugaragaza": 2726,
      "tubi": 2727,
      "can": 2728,
      "##my": 2729,
      "african": 2730,
      "##kanwa": 2731,
      "guhu": 2732,
      "##ari": 2733,
      "bice": 2734,
      "abibu": 2735,
      "mbuga": 2736,
      "aramu": 2737,
      "kurushaho": 2738,
      "gicumbi": 2739,
      "mpera": 2740,
      "##guwe": 2741,
      "gite": 2742,
      "ibiyobyabwenge": 2743,
      "kuya": 2744,
      "##net": 2745,
      "##ding": 2746,
      "bakwiye": 2747,
      "kwibuka": 2748,
      "##kondo": 2749,
      "umwanzuro": 2750,
      "interna": 2751,
      "##cika": 2752,
      "ndayi": 2753,
      "##gezweho": 2754,
      "imyenda": 2755,
      "##kundi": 2756,
      "basa": 2757,
      "res": 2758,
      "##camanza": 2759,
      "oli": 2760,
      "ibijyanye": 2761,
      "##rundi": 2762,
      "ihe": 2763,
      "yanjye": 2764,
      "##ves": 2765,
      "visi": 2766,
      "##rego": 2767,
      "nshingwabikorwa": 2768,
      "##menyekana": 2769,
      "gukura": 2770,
      "##yobowe": 2771,
      "abaminisitiri": 2772,
      "ikomeye": 2773,
      "##shimo": 2774,
      "muto": 2775,
      "vs": 2776,
      "##rewe": 2777,
      "##magana": 2778,
      "hara": 2779,
      "##nganya": 2780,
      "bakoresha": 2781,
      "nimu": 2782,
      "##ence": 2783,
      "ushaka": 2784,
      "clau": 2785,
      "##beshya": 2786,
      "kwinjira": 2787,
      "bwongereza": 2788,
      "##curuzwa": 2789,
      "##zin": 2790,
      "ag": 2791,
      "ukomeye": 2792,
      "##sengi": 2793,
      "mp": 2794,
      "rusizi": 2795,
      "wacu": 2796,
      "##ura": 2797,
      "bakuru": 2798,
      "isuku": 2799,
      "##ket": 2800,
      "gusaba": 2801,
      "intwaro": 2802,
      "##liki": 2803,
      "char": 2804,
      "gutangira": 2805,
      "##komeze": 2806,
      "gusha": 2807,
      "bigatuma": 2808,
      "##kwirakwi": 2809,
      "bon": 2810,
      "##garagazwa": 2811,
      "guhi": 2812,
      "##tsinzwe": 2813,
      "##fatiwe": 2814,
      "##ster": 2815,
      "##dia": 2816,
      "zan": 2817,
      "##gurwa": 2818,
      "united": 2819,
      "##banya": 2820,
      "abaganga": 2821,
      "umura": 2822,
      "##hani": 2823,
      "##mwu": 2824,
      "isaha": 2825,
      "##teza": 2826,
      "##tewe": 2827,
      "icyumweru": 2828,
      "coun": 2829,
      "abarimu": 2830,
      "##yanga": 2831,
      "##gati": 2832,
      "##reze": 2833,
      "bahise": 2834,
      "35": 2835,
      "gukorwa": 2836,
      "koperative": 2837,
      "pri": 2838,
      "gasabo": 2839,
      "one": 2840,
      "amajyepfo": 2841,
      "##ls": 2842,
      "abapolisi": 2843,
      "muhi": 2844,
      "##teganyo": 2845,
      "igaragaza": 2846,
      "que": 2847,
      "bura": 2848,
      "prof": 2849,
      "abagenzi": 2850,
      "mbe": 2851,
      "##line": 2852,
      "##soza": 2853,
      "##terwa": 2854,
      "mwu": 2855,
      "jose": 2856,
      "cent": 2857,
      "kwiba": 2858,
      "##kangura": 2859,
      "yatanze": 2860,
      "atatu": 2861,
      "ishyirahamwe": 2862,
      "eu": 2863,
      "bazaba": 2864,
      "kugura": 2865,
      "gikomeye": 2866,
      "##gina": 2867,
      "##itegura": 2868,
      "mon": 2869,
      "##yemeje": 2870,
      "aziya": 2871,
      "marie": 2872,
      "##ndwi": 2873,
      "have": 2874,
      "ambasa": 2875,
      "usa": 2876,
      "abanyama": 2877,
      "moto": 2878,
      "##kari": 2879,
      "##ring": 2880,
      "##rushaho": 2881,
      "igifu": 2882,
      "pierre": 2883,
      "mpuza": 2884,
      "##twari": 2885,
      "izamu": 2886,
      "##od": 2887,
      "##hagaze": 2888,
      "##metero": 2889,
      "bus": 2890,
      "##shatu": 2891,
      "##ciye": 2892,
      "yatanga": 2893,
      "est": 2894,
      "##um": 2895,
      "##ration": 2896,
      "##mond": 2897,
      "ubufatanye": 2898,
      "rushanwa": 2899,
      "ugere": 2900,
      "mukura": 2901,
      "##tsindi": 2902,
      "kara": 2903,
      "ubusanzwe": 2904,
      "gene": 2905,
      "##herero": 2906,
      "rukiko": 2907,
      "numva": 2908,
      "ubwan": 2909,
      "cyiciro": 2910,
      "tuyi": 2911,
      "##yin": 2912,
      "bimu": 2913,
      "miryango": 2914,
      "bakunda": 2915,
      "nanjye": 2916,
      "##tre": 2917,
      "##hwa": 2918,
      "kintu": 2919,
      "club": 2920,
      "cyabo": 2921,
      "hotel": 2922,
      "##iteguye": 2923,
      "yagaragaje": 2924,
      "##puro": 2925,
      "gice": 2926,
      "nabwo": 2927,
      "virusi": 2928,
      "yandi": 2929,
      "##shimye": 2930,
      "che": 2931,
      "agateganyo": 2932,
      "##rasirazuba": 2933,
      "##rengera": 2934,
      "nyiri": 2935,
      "abayi": 2936,
      "rukundo": 2937,
      "yabonye": 2938,
      "ubun": 2939,
      "##vuka": 2940,
      "2014": 2941,
      "##jemo": 2942,
      "gisa": 2943,
      "##raho": 2944,
      "##yuka": 2945,
      "umuziki": 2946,
      "##ger": 2947,
      "bakomeje": 2948,
      "##tegeka": 2949,
      "abibumbye": 2950,
      "yako": 2951,
      "##dukikije": 2952,
      "iriya": 2953,
      "##yabu": 2954,
      "mazi": 2955,
      "##cation": 2956,
      "ikiganiro": 2957,
      "##ditsi": 2958,
      "##vugo": 2959,
      "natwe": 2960,
      "gitaramo": 2961,
      "gukorana": 2962,
      "umwuga": 2963,
      "kili": 2964,
      "umunani": 2965,
      "inzoga": 2966,
      "mbona": 2967,
      "mini": 2968,
      "##ngenge": 2969,
      "##siyete": 2970,
      "abadepite": 2971,
      "ngabo": 2972,
      "##ise": 2973,
      "muke": 2974,
      "##koreye": 2975,
      "##korewe": 2976,
      "##siti": 2977,
      "ababi": 2978,
      "##garika": 2979,
      "wayo": 2980,
      "##per": 2981,
      "##use": 2982,
      "##gaho": 2983,
      "batari": 2984,
      "uruhu": 2985,
      "umubano": 2986,
      "kanseri": 2987,
      "##ganiriye": 2988,
      "##kangurambaga": 2989,
      "iharanira": 2990,
      "bagabo": 2991,
      "##rohe": 2992,
      "kanya": 2993,
      "abahinzi": 2994,
      "##kono": 2995,
      "##dini": 2996,
      "bam": 2997,
      "imitu": 2998,
      "amajwi": 2999,
      "musore": 3000,
      "nibo": 3001,
      "nigeria": 3002,
      "umuhanda": 3003,
      "##mbuka": 3004,
      "mukan": 3005,
      "bwose": 3006,
      "byombi": 3007,
      "international": 3008,
      "##girira": 3009,
      "kagari": 3010,
      "cg": 3011,
      "##vuza": 3012,
      "igitabo": 3013,
      "##tegereje": 3014,
      "##koraga": 3015,
      "yageze": 3016,
      "##gukanye": 3017,
      "amajyaruguru": 3018,
      "wara": 3019,
      "##itwarire": 3020,
      "ina": 3021,
      "ibinya": 3022,
      "ukuvuga": 3023,
      "batara": 3024,
      "##ong": 3025,
      "##menyesha": 3026,
      "mw": 3027,
      "papa": 3028,
      "##ngiye": 3029,
      "muba": 3030,
      "bisanzwe": 3031,
      "rubyiruko": 3032,
      "bakinnyi": 3033,
      "inganda": 3034,
      "munyan": 3035,
      "nshinga": 3036,
      "mibi": 3037,
      "yinji": 3038,
      "zitu": 3039,
      "kicu": 3040,
      "reka": 3041,
      "##rari": 3042,
      "##gombye": 3043,
      "yagiranye": 3044,
      "yanditse": 3045,
      "amakosa": 3046,
      "amwe": 3047,
      "mute": 3048,
      "##pani": 3049,
      "badu": 3050,
      "ahanini": 3051,
      "icyakora": 3052,
      "##lari": 3053,
      "internet": 3054,
      "imibonano": 3055,
      "kicukiro": 3056,
      "who": 3057,
      "##wandi": 3058,
      "mugabane": 3059,
      "##zaga": 3060,
      "##ngura": 3061,
      "yab": 3062,
      "ibyamamare": 3063,
      "##don": 3064,
      "babonye": 3065,
      "##mbyi": 3066,
      "##bitsina": 3067,
      "col": 3068,
      "2013": 3069,
      "##kurwa": 3070,
      "wamu": 3071,
      "##king": 3072,
      "maro": 3073,
      "agaragaza": 3074,
      "##juje": 3075,
      "##ruhu": 3076,
      "ugomba": 3077,
      "ngoma": 3078,
      "##ziyo": 3079,
      "cumi": 3080,
      "kiriya": 3081,
      "##lop": 3082,
      "##vamo": 3083,
      "##shyikiri": 3084,
      "##yura": 3085,
      "wabaye": 3086,
      "##gram": 3087,
      "masezerano": 3088,
      "##itangaza": 3089,
      "babu": 3090,
      "##sinda": 3091,
      "telefoni": 3092,
      "kuzamura": 3093,
      "abarwayi": 3094,
      "tran": 3095,
      "ut": 3096,
      "ahitwa": 3097,
      "##ua": 3098,
      "##lisa": 3099,
      "##tangiriro": 3100,
      "##siya": 3101,
      "##mvise": 3102,
      "byabaye": 3103,
      "meza": 3104,
      "bitwa": 3105,
      "##kize": 3106,
      "mateka": 3107,
      "ruri": 3108,
      "##ciwe": 3109,
      "##koko": 3110,
      "##ed": 3111,
      "sou": 3112,
      "##komere": 3113,
      "yuba": 3114,
      "ubw": 3115,
      "kubura": 3116,
      "banyarwanda": 3117,
      "portu": 3118,
      "mpa": 3119,
      "##latini": 3120,
      "##dent": 3121,
      "igitsina": 3122,
      "abanza": 3123,
      "198": 3124,
      "igifungo": 3125,
      "mpuzabitsina": 3126,
      "32": 3127,
      "##myi": 3128,
      "gusi": 3129,
      "##vugaga": 3130,
      "yafashe": 3131,
      "##shyigikiye": 3132,
      "bar": 3133,
      "ryari": 3134,
      "ruda": 3135,
      "ibitabo": 3136,
      "60": 3137,
      "ibyiza": 3138,
      "##tungo": 3139,
      "##hanu": 3140,
      "byu": 3141,
      "fpr": 3142,
      "##hoza": 3143,
      "ibyishimo": 3144,
      "kongo": 3145,
      "imikorere": 3146,
      "##rengane": 3147,
      "barenga": 3148,
      "mubiri": 3149,
      "soma": 3150,
      "kugaragara": 3151,
      "##banyi": 3152,
      "aribo": 3153,
      "##suye": 3154,
      "ve": 3155,
      "rushya": 3156,
      "sacco": 3157,
      "filime": 3158,
      "##viziyo": 3159,
      "##keye": 3160,
      "their": 3161,
      "butaka": 3162,
      "##nuko": 3163,
      "magana": 3164,
      "ubworozi": 3165,
      "ubwe": 3166,
      "hata": 3167,
      "kiliziya": 3168,
      "##pfuka": 3169,
      "icumi": 3170,
      "##liya": 3171,
      "##dwi": 3172,
      "uruganda": 3173,
      "gukumira": 3174,
      "##sobanuye": 3175,
      "bufatanye": 3176,
      "ukora": 3177,
      "##tsindwa": 3178,
      "nyagatare": 3179,
      "guca": 3180,
      "uturere": 3181,
      "ruza": 3182,
      "guhura": 3183,
      "olivier": 3184,
      "##byaye": 3185,
      "inkotanyi": 3186,
      "##gukana": 3187,
      "usi": 3188,
      "butegetsi": 3189,
      "uzaba": 3190,
      "impinduka": 3191,
      "abatuye": 3192,
      "muru": 3193,
      "mama": 3194,
      "##zeyimana": 3195,
      "##ssa": 3196,
      "mategeko": 3197,
      "igira": 3198,
      "##ree": 3199,
      "bavuze": 3200,
      "##hembwa": 3201,
      "twu": 3202,
      "##rukana": 3203,
      "##gengo": 3204,
      "bushinwa": 3205,
      "bibi": 3206,
      "##ctor": 3207,
      "ibice": 3208,
      "sport": 3209,
      "asanzwe": 3210,
      "##ganire": 3211,
      "##kingi": 3212,
      "##tinya": 3213,
      "bane": 3214,
      "izuba": 3215,
      "bagore": 3216,
      "##as": 3217,
      "interahamwe": 3218,
      "gutegura": 3219,
      "ngoro": 3220,
      "##nc": 3221,
      "bandi": 3222,
      "##shimishije": 3223,
      "usanzwe": 3224,
      "##tsinzi": 3225,
      "##nziza": 3226,
      "riri": 3227,
      "gifaransa": 3228,
      "##guzi": 3229,
      "##gamizi": 3230,
      "##sena": 3231,
      "ferwafa": 3232,
      "whi": 3233,
      "##rekeye": 3234,
      "##merera": 3235,
      "gukurikirana": 3236,
      "yayi": 3237,
      "##ok": 3238,
      "##butsa": 3239,
      "agu": 3240,
      "league": 3241,
      "mutima": 3242,
      "amabuye": 3243,
      "nteko": 3244,
      "##menyekanye": 3245,
      "##rerwa": 3246,
      "##gega": 3247,
      "taliki": 3248,
      "##eu": 3249,
      "##kimbi": 3250,
      "bifuza": 3251,
      "claude": 3252,
      "inyandiko": 3253,
      "##yuze": 3254,
      "ange": 3255,
      "muzika": 3256,
      "biteganyijwe": 3257,
      "kuga": 3258,
      "abahanga": 3259,
      "ibyangombwa": 3260,
      "kivu": 3261,
      "akagari": 3262,
      "##kure": 3263,
      "igera": 3264,
      "rutonde": 3265,
      "his": 3266,
      "yongeye": 3267,
      "gita": 3268,
      "ubona": 3269,
      "per": 3270,
      "pen": 3271,
      "ahari": 3272,
      "##gane": 3273,
      "##genzacyaha": 3274,
      "niko": 3275,
      "zifite": 3276,
      "atangira": 3277,
      "baru": 3278,
      "byaha": 3279,
      "nyarugenge": 3280,
      "zite": 3281,
      "basanzwe": 3282,
      "##shinze": 3283,
      "inye": 3284,
      "ibidukikije": 3285,
      "imiyoborere": 3286,
      "kuha": 3287,
      "##mereye": 3288,
      "##sis": 3289,
      "##tani": 3290,
      "tugomba": 3291,
      "deve": 3292,
      "impungenge": 3293,
      "##tware": 3294,
      "##port": 3295,
      "abakora": 3296,
      "##lamu": 3297,
      "diamond": 3298,
      "urubuga": 3299,
      "guma": 3300,
      "mara": 3301,
      "gatu": 3302,
      "##hingwa": 3303,
      "ijwi": 3304,
      "abikorera": 3305,
      "ima": 3306,
      "##rero": 3307,
      "##kimbirane": 3308,
      "##yite": 3309,
      "##chi": 3310,
      "##tira": 3311,
      "caf": 3312,
      "karu": 3313,
      "rura": 3314,
      "komini": 3315,
      "ireme": 3316,
      "uki": 3317,
      "##iterere": 3318,
      "45": 3319,
      "##mar": 3320,
      "twese": 3321,
      "niyon": 3322,
      "sina": 3323,
      "bwari": 3324,
      "giturukiya": 3325,
      "kamo": 3326,
      "muyobozi": 3327,
      "ibihano": 3328,
      "min": 3329,
      "atara": 3330,
      "pour": 3331,
      "part": 3332,
      "##rick": 3333,
      "bumva": 3334,
      "##muna": 3335,
      "abakunzi": 3336,
      "igiye": 3337,
      "ruhango": 3338,
      "##phone": 3339,
      "sosiyete": 3340,
      "##ny": 3341,
      "rufite": 3342,
      "##sobanuro": 3343,
      "slova": 3344,
      "##mpu": 3345,
      "guhindura": 3346,
      "bikwiye": 3347,
      "imishinga": 3348,
      "##sed": 3349,
      "##gihugu": 3350,
      "##giriye": 3351,
      "vide": 3352,
      "##zanya": 3353,
      "eshatu": 3354,
      "##tangajwe": 3355,
      "asanga": 3356,
      "##tsiko": 3357,
      "##bandi": 3358,
      "mirimo": 3359,
      "imisoro": 3360,
      "op": 3361,
      "bab": 3362,
      "bako": 3363,
      "##shini": 3364,
      "kumi": 3365,
      "bariya": 3366,
      "all": 3367,
      "amasoko": 3368,
      "bimeze": 3369,
      "##muha": 3370,
      "63": 3371,
      "ibiciro": 3372,
      "el": 3373,
      "basaba": 3374,
      "yise": 3375,
      "televiziyo": 3376,
      "ake": 3377,
      "imyan": 3378,
      "fu": 3379,
      "##tandukana": 3380,
      "##shimangira": 3381,
      "amata": 3382,
      "cyiza": 3383,
      "padiri": 3384,
      "##rijwe": 3385,
      "##gora": 3386,
      "##gejeje": 3387,
      "abakuru": 3388,
      "##shishikariza": 3389,
      "uwari": 3390,
      "##res": 3391,
      "mala": 3392,
      "air": 3393,
      "##hangayi": 3394,
      "##nya": 3395,
      "##haranira": 3396,
      "zikomeye": 3397,
      "##teli": 3398,
      "abacuruzi": 3399,
      "makipe": 3400,
      "mushya": 3401,
      "##koreshejwe": 3402,
      "sho": 3403,
      "##ques": 3404,
      "kilatini": 3405,
      "##kunzwe": 3406,
      "tuga": 3407,
      "va": 3408,
      "ntibya": 3409,
      "##rokotse": 3410,
      "bakozi": 3411,
      "##tangaza": 3412,
      "bwinshi": 3413,
      "##vuzwe": 3414,
      "rivuga": 3415,
      "atandukanye": 3416,
      "gra": 3417,
      "rubanda": 3418,
      "hon": 3419,
      "wenda": 3420,
      "kurinda": 3421,
      "##baga": 3422,
      "rugamba": 3423,
      "##jura": 3424,
      "bizaba": 3425,
      "##kandida": 3426,
      "##20": 3427,
      "##phe": 3428,
      "jye": 3429,
      "said": 3430,
      "300": 3431,
      "kugabanya": 3432,
      "kunywa": 3433,
      "gushyiraho": 3434,
      "abasi": 3435,
      "##tyoza": 3436,
      "yemeje": 3437,
      "igitaramo": 3438,
      "##eza": 3439,
      "ikinyarwanda": 3440,
      "habya": 3441,
      "##hwe": 3442,
      "##mas": 3443,
      "amasa": 3444,
      "bivuze": 3445,
      "##shyirwaho": 3446,
      "##bwoba": 3447,
      "buza": 3448,
      "07": 3449,
      "##gisho": 3450,
      "intyoza": 3451,
      "icye": 3452,
      "##tana": 3453,
      "##neza": 3454,
      "urutonde": 3455,
      "avuye": 3456,
      "bazajya": 3457,
      "nkurunziza": 3458,
      "##ff": 3459,
      "kirekire": 3460,
      "bahabwa": 3461,
      "madamu": 3462,
      "##vana": 3463,
      "##fashisha": 3464,
      "une": 3465,
      "bakomeye": 3466,
      "akiri": 3467,
      "pat": 3468,
      "##cia": 3469,
      "zombi": 3470,
      "up": 3471,
      "joseph": 3472,
      "kubana": 3473,
      "##yamamaza": 3474,
      "ukomoka": 3475,
      "bas": 3476,
      "kigero": 3477,
      "intwari": 3478,
      "##ngire": 3479,
      "bakobwa": 3480,
      "cyaha": 3481,
      "uhagarariye": 3482,
      "##vutse": 3483,
      "##ner": 3484,
      "##ngira": 3485,
      "rushyashya": 3486,
      "intumwa": 3487,
      "bike": 3488,
      "biganiro": 3489,
      "kwandika": 3490,
      "batangira": 3491,
      "igitu": 3492,
      "nshingano": 3493,
      "##hutu": 3494,
      "kudu": 3495,
      "riza": 3496,
      "tuzi": 3497,
      "##fungura": 3498,
      "##shakaga": 3499,
      "##ineza": 3500,
      "yifuza": 3501,
      "develop": 3502,
      "baya": 3503,
      "ubufasha": 3504,
      "##bonera": 3505,
      "her": 3506,
      "ibiribwa": 3507,
      "##19": 3508,
      "36": 3509,
      "gukemura": 3510,
      "guhagarika": 3511,
      "inno": 3512,
      "munini": 3513,
      "ami": 3514,
      "itandukanye": 3515,
      "inc": 3516,
      "abasore": 3517,
      "kubo": 3518,
      "gakondo": 3519,
      "ibitaro": 3520,
      "##sabimana": 3521,
      "hagamijwe": 3522,
      "kuburyo": 3523,
      "##peri": 3524,
      "kutu": 3525,
      "baturutse": 3526,
      "##funzwe": 3527,
      "kubunga": 3528,
      "ugiye": 3529,
      "zida": 3530,
      "##itabira": 3531,
      "trans": 3532,
      "gishize": 3533,
      "##vuguru": 3534,
      "##dani": 3535,
      "##guze": 3536,
      "uvuga": 3537,
      "##kangurira": 3538,
      "kampa": 3539,
      "##ddy": 3540,
      "##gereza": 3541,
      "zira": 3542,
      "dukesha": 3543,
      "##gereye": 3544,
      "grou": 3545,
      "##gishwa": 3546,
      "##shumba": 3547,
      "##yumvire": 3548,
      "##gita": 3549,
      "##goye": 3550,
      "##itana": 3551,
      "kayumba": 3552,
      "bitatu": 3553,
      "ikarita": 3554,
      "ibicuruzwa": 3555,
      "##munwa": 3556,
      "ihuriro": 3557,
      "uburayi": 3558,
      "habyarimana": 3559,
      "04": 3560,
      "##kuwe": 3561,
      "##geni": 3562,
      "fd": 3563,
      "ageze": 3564,
      "bugufi": 3565,
      "##shakira": 3566,
      "##kinnye": 3567,
      "ishyamba": 3568,
      "2012": 3569,
      "##rima": 3570,
      "muhabura": 3571,
      "nara": 3572,
      "misi": 3573,
      "##cis": 3574,
      "##size": 3575,
      "asa": 3576,
      "byeme": 3577,
      "amadolari": 3578,
      "##bin": 3579,
      "bakorera": 3580,
      "yabanje": 3581,
      "bakabi": 3582,
      "ibanga": 3583,
      "ale": 3584,
      "##ganjemo": 3585,
      "##bwire": 3586,
      "##kurikiza": 3587,
      "byiciro": 3588,
      "ndan": 3589,
      "ubushake": 3590,
      "rira": 3591,
      "##vers": 3592,
      "##riweho": 3593,
      "imiyoboro": 3594,
      "karo": 3595,
      "##huri": 3596,
      "busa": 3597,
      "data": 3598,
      "uburwayi": 3599,
      "##ad": 3600,
      "##jyaga": 3601,
      "##gitu": 3602,
      "kum": 3603,
      "bakajya": 3604,
      "##hinde": 3605,
      "bubiligi": 3606,
      "##banuka": 3607,
      "bisaba": 3608,
      "abahungu": 3609,
      "##banye": 3610,
      "gufatwa": 3611,
      "buka": 3612,
      "yisumbuye": 3613,
      "intambwe": 3614,
      "kubahiriza": 3615,
      "bwite": 3616,
      "hakiri": 3617,
      "99u": 3618,
      "kikaba": 3619,
      "##zihiza": 3620,
      "##vin": 3621,
      "##yweho": 3622,
      "##horaho": 3623,
      "##ght": 3624,
      "yemeza": 3625,
      "##garagaro": 3626,
      "iran": 3627,
      "hato": 3628,
      "##yira": 3629,
      "fil": 3630,
      "imitwe": 3631,
      "##suzuma": 3632,
      "##gaze": 3633,
      "amoko": 3634,
      "##med": 3635,
      "world": 3636,
      "kubungabunga": 3637,
      "##kol": 3638,
      "ibiti": 3639,
      "wose": 3640,
      "##nan": 3641,
      "abanyamuryango": 3642,
      "ijuru": 3643,
      "basanga": 3644,
      "gupfa": 3645,
      "##zara": 3646,
      "bimaze": 3647,
      "##hisha": 3648,
      "33": 3649,
      "abamu": 3650,
      "robert": 3651,
      "imyitwarire": 3652,
      "##rk": 3653,
      "##caro": 3654,
      "imitungo": 3655,
      "metero": 3656,
      "mushinga": 3657,
      "##gezi": 3658,
      "##hungabanya": 3659,
      "##huriye": 3660,
      "ugereranyije": 3661,
      "bahanzi": 3662,
      "impunzi": 3663,
      "tuta": 3664,
      "idini": 3665,
      "bavuye": 3666,
      "ubugenzacyaha": 3667,
      "rishinzwe": 3668,
      "masaha": 3669,
      "baramu": 3670,
      "##yire": 3671,
      "##panyi": 3672,
      "manda": 3673,
      "##yapani": 3674,
      "bishwe": 3675,
      "##gerageje": 3676,
      "impe": 3677,
      "bashya": 3678,
      "ay": 3679,
      "rwamagana": 3680,
      "##gezaho": 3681,
      "munyaka": 3682,
      "##kurikije": 3683,
      "ubuvuzi": 3684,
      "##jyambere": 3685,
      "mabwiriza": 3686,
      "they": 3687,
      "ethi": 3688,
      "koro": 3689,
      "##gy": 3690,
      "##hagari": 3691,
      "abanye": 3692,
      "app": 3693,
      "kida": 3694,
      "gufungwa": 3695,
      "##zamuka": 3696,
      "##min": 3697,
      "aribyo": 3698,
      "iterabwoba": 3699,
      "uyobora": 3700,
      "akaza": 3701,
      "umushahara": 3702,
      "##rwaga": 3703,
      "##50": 3704,
      "muhango": 3705,
      "adj": 3706,
      "agi": 3707,
      "196": 3708,
      "##enga": 3709,
      "##zeza": 3710,
      "ntaho": 3711,
      "wahoze": 3712,
      "##deli": 3713,
      "##duka": 3714,
      "ruse": 3715,
      "##tho": 3716,
      "##garagu": 3717,
      "zika": 3718,
      "ngi": 3719,
      "##mve": 3720,
      "gutangaza": 3721,
      "yasoho": 3722,
      "iman": 3723,
      "##shema": 3724,
      "##yoboke": 3725,
      "##cide": 3726,
      "##garagam": 3727,
      "niho": 3728,
      "##opi": 3729,
      "##hombo": 3730,
      "igihembo": 3731,
      "mike": 3732,
      "##funze": 3733,
      "34": 3734,
      "##injiza": 3735,
      "##rondo": 3736,
      "buvuga": 3737,
      "reba": 3738,
      "bagaragaza": 3739,
      "##bukuru": 3740,
      "##hesha": 3741,
      "isira": 3742,
      "##shyizeho": 3743,
      "gitabo": 3744,
      "kamonyi": 3745,
      "##alth": 3746,
      "##jyanwa": 3747,
      "chris": 3748,
      "##shiki": 3749,
      "abaza": 3750,
      "pho": 3751,
      "ububanyi": 3752,
      "guto": 3753,
      "##kwirakwira": 3754,
      "umurongo": 3755,
      "##fatanyabikorwa": 3756,
      "gusoma": 3757,
      "##jugu": 3758,
      "##rm": 3759,
      "bigira": 3760,
      "val": 3761,
      "70": 3762,
      "##hili": 3763,
      "guhuza": 3764,
      "hare": 3765,
      "##hindutse": 3766,
      "kuwu": 3767,
      "##gezwa": 3768,
      "inkiko": 3769,
      "mwene": 3770,
      "igisubizo": 3771,
      "amazu": 3772,
      "bumwe": 3773,
      "ubwicanyi": 3774,
      "##hizamu": 3775,
      "abwira": 3776,
      "##rwara": 3777,
      "##mic": 3778,
      "##fura": 3779,
      "##yubahiro": 3780,
      "##ariko": 3781,
      "yatangi": 3782,
      "akarengane": 3783,
      "twara": 3784,
      "##pfukamunwa": 3785,
      "il": 3786,
      "##shimisha": 3787,
      "dis": 3788,
      "gusura": 3789,
      "francis": 3790,
      "##itangaje": 3791,
      "##ley": 3792,
      "##kubahwa": 3793,
      "iru": 3794,
      "mr": 3795,
      "##mber": 3796,
      "amahugurwa": 3797,
      "##ranire": 3798,
      "kampala": 3799,
      "guse": 3800,
      "tumu": 3801,
      "bizimana": 3802,
      "rnc": 3803,
      "##land": 3804,
      "##lles": 3805,
      "##butso": 3806,
      "bisa": 3807,
      "##rekezo": 3808,
      "ngufu": 3809,
      "##tere": 3810,
      "maku": 3811,
      "itari": 3812,
      "##xi": 3813,
      "##gerageza": 3814,
      "kwizera": 3815,
      "ethiopi": 3816,
      "ava": 3817,
      "myanya": 3818,
      "##daga": 3819,
      "tour": 3820,
      "197": 3821,
      "itike": 3822,
      "car": 3823,
      "inyuguti": 3824,
      "patrick": 3825,
      "face": 3826,
      "yafashwe": 3827,
      "shyaka": 3828,
      "##rekanye": 3829,
      "##pima": 3830,
      "imyanya": 3831,
      "##rebe": 3832,
      "##garama": 3833,
      "yuko": 3834,
      "peop": 3835,
      "##rwamo": 3836,
      "##int": 3837,
      "##rebana": 3838,
      "abate": 3839,
      "theo": 3840,
      "##comment": 3841,
      "##und": 3842,
      "kuganira": 3843,
      "city": 3844,
      "camero": 3845,
      "usibye": 3846,
      "ntigaragazwa": 3847,
      "getelementbyidcomment": 3848,
      "kwitabira": 3849,
      "##nko": 3850,
      "cyarabu": 3851,
      "##sohora": 3852,
      "but": 3853,
      "dani": 3854,
      "yadu": 3855,
      "imiterere": 3856,
      "yigeze": 3857,
      "run": 3858,
      "##mani": 3859,
      "amase": 3860,
      "nto": 3861,
      "##tra": 3862,
      "##mer": 3863,
      "nyakubahwa": 3864,
      "akomeye": 3865,
      "kayon": 3866,
      "##bel": 3867,
      "cyacu": 3868,
      "abakoresha": 3869,
      "##itabiriye": 3870,
      "##bonaga": 3871,
      "##kuramo": 3872,
      "##hande": 3873,
      "2010": 3874,
      "ikorera": 3875,
      "ishimwe": 3876,
      "ikirere": 3877,
      "servi": 3878,
      "ivan": 3879,
      "agace": 3880,
      "##nes": 3881,
      "hakizimana": 3882,
      "isango": 3883,
      "##guruka": 3884,
      "ubwu": 3885,
      "mudaso": 3886,
      "byamu": 3887,
      "nyamu": 3888,
      "kwandura": 3889,
      "cap": 3890,
      "##tun": 3891,
      "##fuzo": 3892,
      "rubanza": 3893,
      "yavuye": 3894,
      "##shyiki": 3895,
      "sur": 3896,
      "nsengi": 3897,
      "##hamaga": 3898,
      "muvu": 3899,
      "yahaye": 3900,
      "mbese": 3901,
      "ingengo": 3902,
      "ubukangurambaga": 3903,
      "##bunda": 3904,
      "ibaruwa": 3905,
      "nge": 3906,
      "amakimbirane": 3907,
      "pasiteri": 3908,
      "##hishe": 3909,
      "utara": 3910,
      "muli": 3911,
      "inyamaswa": 3912,
      "ps": 3913,
      "##sabagina": 3914,
      "people": 3915,
      "akajya": 3916,
      "agahinda": 3917,
      "munye": 3918,
      "rutahizamu": 3919,
      "team": 3920,
      "##wer": 3921,
      "##duko": 3922,
      "imihanda": 3923,
      "murongo": 3924,
      "bavu": 3925,
      "gusu": 3926,
      "azajya": 3927,
      "kinyarwanda": 3928,
      "bat": 3929,
      "umukono": 3930,
      "bigaragaza": 3931,
      "ikora": 3932,
      "ber": 3933,
      "inzara": 3934,
      "08": 3935,
      "van": 3936,
      "yabu": 3937,
      "champi": 3938,
      "rusesabagina": 3939,
      "00": 3940,
      "kose": 3941,
      "kindi": 3942,
      "##itani": 3943,
      "utaha": 3944,
      "mugaragaro": 3945,
      "bito": 3946,
      "imbogamizi": 3947,
      "maj": 3948,
      "icyongereza": 3949,
      "##gamo": 3950,
      "ibyago": 3951,
      "birori": 3952,
      "2011": 3953,
      "bafata": 3954,
      "icyiciro": 3955,
      "bakunze": 3956,
      "ibyemezo": 3957,
      "akunda": 3958,
      "den": 3959,
      "##hirizwa": 3960,
      "umwarimu": 3961,
      "ibirori": 3962,
      "nga": 3963,
      "mudasobwa": 3964,
      "km": 3965,
      "##riri": 3966,
      "burya": 3967,
      "mart": 3968,
      "muti": 3969,
      "##shuli": 3970,
      "250": 3971,
      "development": 3972,
      "##turutse": 3973,
      "bigeze": 3974,
      "##mbitse": 3975,
      "tho": 3976,
      "guseze": 3977,
      "amaga": 3978,
      "ariho": 3979,
      "tukaba": 3980,
      "kimi": 3981,
      "fin": 3982,
      "kwiyongera": 3983,
      "38": 3984,
      "##stra": 3985,
      "##mpaka": 3986,
      "yapfuye": 3987,
      "##citse": 3988,
      "##feri": 3989,
      "##situ": 3990,
      "inyi": 3991,
      "ingabire": 3992,
      "ziga": 3993,
      "misiri": 3994,
      "aru": 3995,
      "##pamyabu": 3996,
      "yashimiye": 3997,
      "##ee": 3998,
      "##hanganye": 3999,
      "90": 4000,
      "kubaha": 4001,
      "##cumbi": 4002,
      "ikoreshwa": 4003,
      "bitabiriye": 4004,
      "##yoma": 4005,
      "utuye": 4006,
      "##ments": 4007,
      "isano": 4008,
      "tugiye": 4009,
      "nyungu": 4010,
      "video": 4011,
      "ruganda": 4012,
      "icy": 4013,
      "ubucu": 4014,
      "akamu": 4015,
      "ubura": 4016,
      "##tangiza": 4017,
      "cal": 4018,
      "wumva": 4019,
      "isezerano": 4020,
      "ubukene": 4021,
      "##geyeho": 4022,
      "##simbu": 4023,
      "interine": 4024,
      "yare": 4025,
      "ahagaragara": 4026,
      "##fashishwa": 4027,
      "gukunda": 4028,
      "gatera": 4029,
      "##kwirakwiza": 4030,
      "mezi": 4031,
      "dans": 4032,
      "edu": 4033,
      "nyandiko": 4034,
      "national": 4035,
      "lan": 4036,
      "##uld": 4037,
      "akan": 4038,
      "##rikana": 4039,
      "mugabe": 4040,
      "ubwami": 4041,
      "##bari": 4042,
      "##bibi": 4043,
      "igihano": 4044,
      "##mpinga": 4045,
      "ntawe": 4046,
      "cana": 4047,
      "bitari": 4048,
      "kirehe": 4049,
      "##sangan": 4050,
      "aherutse": 4051,
      "##yahu": 4052,
      "ibisubizo": 4053,
      "basket": 4054,
      "2000": 4055,
      "##kurikiranwa": 4056,
      "petero": 4057,
      "banya": 4058,
      "aravuga": 4059,
      "ambasaderi": 4060,
      "##zindu": 4061,
      "karongi": 4062,
      "##ac": 4063,
      "us": 4064,
      "isanzwe": 4065,
      "##mbaza": 4066,
      "##gali": 4067,
      "maroc": 4068,
      "habaho": 4069,
      "zu": 4070,
      "ngaruka": 4071,
      "remezo": 4072,
      "ububasha": 4073,
      "jeanne": 4074,
      "##zura": 4075,
      "ruha": 4076,
      "abavandimwe": 4077,
      "##ses": 4078,
      "ubukerarugendo": 4079,
      "##gendan": 4080,
      "isirayeli": 4081,
      "interineti": 4082,
      "imyu": 4083,
      "ntago": 4084,
      "##shyurwa": 4085,
      "sena": 4086,
      "wenyine": 4087,
      "##rengeje": 4088,
      "yagombaga": 4089,
      "nki": 4090,
      "kirimo": 4091,
      "##neze": 4092,
      "##tunga": 4093,
      "gate": 4094,
      "ibizamini": 4095,
      "patri": 4096,
      "##rindwi": 4097,
      "##yezu": 4098,
      "intoki": 4099,
      "##prc": 4100,
      "ap": 4101,
      "iko": 4102,
      "uyi": 4103,
      "##biriwe": 4104,
      "nyampinga": 4105,
      "ahagana": 4106,
      "bagenda": 4107,
      "##ruru": 4108,
      "impamyabu": 4109,
      "rugendo": 4110,
      "##ef": 4111,
      "charles": 4112,
      "##bwaho": 4113,
      "##herezwa": 4114,
      "milli": 4115,
      "ibihembo": 4116,
      "er": 4117,
      "indan": 4118,
      "igita": 4119,
      "ifu": 4120,
      "##rekeje": 4121,
      "ii": 4122,
      "gut": 4123,
      "amatungo": 4124,
      "zikaba": 4125,
      "##mbanyi": 4126,
      "kristo": 4127,
      "ifoto": 4128,
      "ntangiriro": 4129,
      "basanze": 4130,
      "umugambi": 4131,
      "habaye": 4132,
      "utari": 4133,
      "##kere": 4134,
      "fan": 4135,
      "spe": 4136,
      "dire": 4137,
      "telefone": 4138,
      "##kemu": 4139,
      "ishoramari": 4140,
      "bamenye": 4141,
      "##shidi": 4142,
      "busanzwe": 4143,
      "ruku": 4144,
      "ikiza": 4145,
      "##renza": 4146,
      "##gaba": 4147,
      "ikirenga": 4148,
      "##fashishijwe": 4149,
      "##senya": 4150,
      "##merika": 4151,
      "##ganywa": 4152,
      "wundi": 4153,
      "##kanisha": 4154,
      "baho": 4155,
      "umusanzu": 4156,
      "ikizere": 4157,
      "##sheke": 4158,
      "twaba": 4159,
      "iprc": 4160,
      "bushya": 4161,
      "ndaba": 4162,
      "ubwiza": 4163,
      "kwivuza": 4164,
      "tumaze": 4165,
      "igitero": 4166,
      "jya": 4167,
      "##wabo": 4168,
      "ise": 4169,
      "amarushanwa": 4170,
      "agenda": 4171,
      "##rit": 4172,
      "nako": 4173,
      "james": 4174,
      "abamaze": 4175,
      "##mire": 4176,
      "##misha": 4177,
      "##ded": 4178,
      "##inyujije": 4179,
      "##urs": 4180,
      "kompanyi": 4181,
      "cip": 4182,
      "nyamira": 4183,
      "##30": 4184,
      "bakana": 4185,
      "ubuda": 4186,
      "##inyuguti": 4187,
      "qui": 4188,
      "kayonza": 4189,
      "ste": 4190,
      "cyumba": 4191,
      "##rema": 4192,
      "ubuhanga": 4193,
      "abashinzwe": 4194,
      "produ": 4195,
      "mugoroba": 4196,
      "gusubira": 4197,
      "rwaga": 4198,
      "alex": 4199,
      "jac": 4200,
      "##garura": 4201,
      "ishinzwe": 4202,
      "##ber": 4203,
      "##giraho": 4204,
      "rurimi": 4205,
      "vin": 4206,
      "remera": 4207,
      "##mbira": 4208,
      "##jan": 4209,
      "marushanwa": 4210,
      "##gal": 4211,
      "wine": 4212,
      "umunye": 4213,
      "batanu": 4214,
      "igiti": 4215,
      "##ziran": 4216,
      "##hen": 4217,
      "akavuga": 4218,
      "mwan": 4219,
      "rundi": 4220,
      "##now": 4221,
      "##ganza": 4222,
      "nicyo": 4223,
      "igizwe": 4224,
      "##fashishije": 4225,
      "##tekereza": 4226,
      "rwabo": 4227,
      "minister": 4228,
      "bigize": 4229,
      "icyu": 4230,
      "37": 4231,
      "bagu": 4232,
      "bushakashatsi": 4233,
      "yize": 4234,
      "##nyeri": 4235,
      "telephone": 4236,
      "iku": 4237,
      "igomba": 4238,
      "##hitana": 4239,
      "##huse": 4240,
      "##cer": 4241,
      "##komo": 4242,
      "than": 4243,
      "yica": 4244,
      "king": 4245,
      "yagarutse": 4246,
      "##guro": 4247,
      "gutekereza": 4248,
      "don": 4249,
      "pano": 4250,
      "yaku": 4251,
      "itegekon": 4252,
      "munyakazi": 4253,
      "awa": 4254,
      "pan": 4255,
      "##bola": 4256,
      "##tungu": 4257,
      "##mbia": 4258,
      "##gezeho": 4259,
      "bakaza": 4260,
      "##refe": 4261,
      "uha": 4262,
      "##zamutse": 4263,
      "##yubaka": 4264,
      "majyaruguru": 4265,
      "ane": 4266,
      "reg": 4267,
      "yabereye": 4268,
      "atandatu": 4269,
      "gatolika": 4270,
      "##bikora": 4271,
      "##sangira": 4272,
      "##rineri": 4273,
      "miti": 4274,
      "yatumye": 4275,
      "yanditswe": 4276,
      "##fatika": 4277,
      "##biziga": 4278,
      "group": 4279,
      "cup": 4280,
      "##tegetse": 4281,
      "ahe": 4282,
      "##ship": 4283,
      "##fashwa": 4284,
      "##cyari": 4285,
      "which": 4286,
      "nyubako": 4287,
      "##geko": 4288,
      "ruga": 4289,
      "nsabimana": 4290,
      "ndege": 4291,
      "akwiye": 4292,
      "mushiki": 4293,
      "panorama": 4294,
      "kwitwara": 4295,
      "innocent": 4296,
      "rdc": 4297,
      "ou": 4298,
      "##bitekerezo": 4299,
      "##ziba": 4300,
      "hate": 4301,
      "kwambara": 4302,
      "igamije": 4303,
      "ind": 4304,
      "myu": 4305,
      "para": 4306,
      "##cyu": 4307,
      "umucamanza": 4308,
      "##ranwa": 4309,
      "bica": 4310,
      "##gerwaho": 4311,
      "##ranyo": 4312,
      "##hagarika": 4313,
      "##buri": 4314,
      "samu": 4315,
      "41": 4316,
      "insta": 4317,
      "##rity": 4318,
      "ibitero": 4319,
      "irindwi": 4320,
      "##taka": 4321,
      "##jima": 4322,
      "bwawe": 4323,
      "ahabwa": 4324,
      "kuno": 4325,
      "ikomeje": 4326,
      "##raba": 4327,
      "##sora": 4328,
      "general": 4329,
      "regi": 4330,
      "offi": 4331,
      "ver": 4332,
      "##kongo": 4333,
      "mugihe": 4334,
      "nyamirambo": 4335,
      "nzo": 4336,
      "##kwan": 4337,
      "ukuriki": 4338,
      "##motari": 4339,
      "mugisha": 4340,
      "imbunda": 4341,
      "kubaza": 4342,
      "isonga": 4343,
      "ji": 4344,
      "##lis": 4345,
      "kimaze": 4346,
      "##gongo": 4347,
      "##kenera": 4348,
      "rwari": 4349,
      "kumwi": 4350,
      "##manaho": 4351,
      "urugamba": 4352,
      "yanga": 4353,
      "ikosa": 4354,
      "sun": 4355,
      "##lr": 4356,
      "##itangira": 4357,
      "imyanzuro": 4358,
      "burasirazuba": 4359,
      "##ruye": 4360,
      "umudugudu": 4361,
      "karangwa": 4362,
      "ebola": 4363,
      "zishobora": 4364,
      "##senal": 4365,
      "ubanza": 4366,
      "yongeyeho": 4367,
      "musaza": 4368,
      "baravuga": 4369,
      "##rent": 4370,
      "amavuta": 4371,
      "##hanuzi": 4372,
      "yaka": 4373,
      "kirere": 4374,
      "men": 4375,
      "abazi": 4376,
      "##vanga": 4377,
      "abagera": 4378,
      "basketball": 4379,
      "01": 4380,
      "imyumvire": 4381,
      "cho": 4382,
      "urwi": 4383,
      "ihoho": 4384,
      "mbo": 4385,
      "turimo": 4386,
      "arsenal": 4387,
      "kinyamakuru": 4388,
      "##ving": 4389,
      "igisirikare": 4390,
      "##tsibo": 4391,
      "bri": 4392,
      "ndo": 4393,
      "isra": 4394,
      "##ziranenge": 4395,
      "##shyire": 4396,
      "##itiro": 4397,
      "##forma": 4398,
      "##88": 4399,
      "##shoferi": 4400,
      "##zuza": 4401,
      "##onald": 4402,
      "murakoze": 4403,
      "##gb": 4404,
      "mukinnyi": 4405,
      "##zabu": 4406,
      "##date": 4407,
      "##ranze": 4408,
      "gori": 4409,
      "42": 4410,
      "gushyigikira": 4411,
      "##kwigendera": 4412,
      "639": 4413,
      "ethiopia": 4414,
      "##gn": 4415,
      "##mina": 4416,
      "##muriza": 4417,
      "yunze": 4418,
      "cn": 4419,
      "##iro": 4420,
      "##lie": 4421,
      "##mbera": 4422,
      "rca": 4423,
      "har": 4424,
      "bakamu": 4425,
      "##cess": 4426,
      "kiciro": 4427,
      "gitsina": 4428,
      "buriya": 4429,
      "##shanu": 4430,
      "##ot": 4431,
      "##des": 4432,
      "urwanda": 4433,
      "##kristo": 4434,
      "muco": 4435,
      "##vaho": 4436,
      "imipaka": 4437,
      "thu": 4438,
      "bina": 4439,
      "bakeneye": 4440,
      "##soje": 4441,
      "##las": 4442,
      "ltd": 4443,
      "biriya": 4444,
      "reb": 4445,
      "##lometero": 4446,
      "##politi": 4447,
      "afata": 4448,
      "##bangamira": 4449,
      "yambaye": 4450,
      "##rukanwa": 4451,
      "bihumbi": 4452,
      "bishoboka": 4453,
      "kabu": 4454,
      "butare": 4455,
      "ntera": 4456,
      "confe": 4457,
      "mirenge": 4458,
      "presi": 4459,
      "kore": 4460,
      "buyobozi": 4461,
      "##aniwe": 4462,
      "##rusiya": 4463,
      "jan": 4464,
      "nini": 4465,
      "imvu": 4466,
      "##spe": 4467,
      "arabi": 4468,
      "bahita": 4469,
      "##toni": 4470,
      "day": 4471,
      "canada": 4472,
      "##cien": 4473,
      "##rega": 4474,
      "yasin": 4475,
      "##limu": 4476,
      "##ffe": 4477,
      "scho": 4478,
      "ibyumweru": 4479,
      "organi": 4480,
      "kama": 4481,
      "##nzwe": 4482,
      "##ristu": 4483,
      "##babaje": 4484,
      "eshanu": 4485,
      "umusi": 4486,
      "##rekezi": 4487,
      "icyenda": 4488,
      "abahutu": 4489,
      "buhinzi": 4490,
      "masa": 4491,
      "mali": 4492,
      "##shanga": 4493,
      "byagenze": 4494,
      "bobi": 4495,
      "also": 4496,
      "nyakwigendera": 4497,
      "##byina": 4498,
      "gover": 4499,
      "##mit": 4500,
      "sup": 4501,
      "our": 4502,
      "zinyu": 4503,
      "yabaga": 4504,
      "cyaba": 4505,
      "##koranire": 4506,
      "gatsibo": 4507,
      "##ssion": 4508,
      "instagram": 4509,
      "itegekongenga": 4510,
      "sudani": 4511,
      "##gihe": 4512,
      "zayo": 4513,
      "gukoreshwa": 4514,
      "mat": 4515,
      "hantu": 4516,
      "dieu": 4517,
      "##cyi": 4518,
      "kabi": 4519,
      "##zengu": 4520,
      "iburengerazuba": 4521,
      "##pool": 4522,
      "more": 4523,
      "ren": 4524,
      "##tinze": 4525,
      "##ngwe": 4526,
      "ikimenyetso": 4527,
      "njyewe": 4528,
      "inyubako": 4529,
      "##shanyo": 4530,
      "vita": 4531,
      "wabi": 4532,
      "zigera": 4533,
      "##sia": 4534,
      "##sesengura": 4535,
      "chu": 4536,
      "liver": 4537,
      "##piteni": 4538,
      "yatangarije": 4539,
      "##book": 4540,
      "gikombe": 4541,
      "##tinda": 4542,
      "bafashwe": 4543,
      "##rds": 4544,
      "##kenke": 4545,
      "ntego": 4546,
      "abanyamahanga": 4547,
      "butandukanye": 4548,
      "igiciro": 4549,
      "##kuraho": 4550,
      "##genzuzi": 4551,
      "itumanaho": 4552,
      "nshimi": 4553,
      "sp": 4554,
      "bakoresheje": 4555,
      "ubuziranenge": 4556,
      "biha": 4557,
      "rep": 4558,
      "bru": 4559,
      "##yeri": 4560,
      "2009": 4561,
      "##beshye": 4562,
      "rita": 4563,
      "##kanda": 4564,
      "mubu": 4565,
      "##kindi": 4566,
      "daniel": 4567,
      "mani": 4568,
      "nshuti": 4569,
      "##kia": 4570,
      "bukungu": 4571,
      "kato": 4572,
      "know": 4573,
      "##hurira": 4574,
      "vincent": 4575,
      "##mategeko": 4576,
      "biterwa": 4577,
      "frank": 4578,
      "its": 4579,
      "bakomeza": 4580,
      "yato": 4581,
      "yahi": 4582,
      "abada": 4583,
      "ukuriye": 4584,
      "03": 4585,
      "##ins": 4586,
      "##mukira": 4587,
      "##yunge": 4588,
      "ikamba": 4589,
      "kamwe": 4590,
      "toni": 4591,
      "hifashishijwe": 4592,
      "icyayi": 4593,
      "minist": 4594,
      "impapuro": 4595,
      "##koma": 4596,
      "abaha": 4597,
      "##garariye": 4598,
      "gushakisha": 4599,
      "ashinjwa": 4600,
      "400": 4601,
      "ikwirakwira": 4602,
      "sofi": 4603,
      "rite": 4604,
      "kugenzura": 4605,
      "bagaragaje": 4606,
      "kano": 4607,
      "ntambara": 4608,
      "liverpool": 4609,
      "##yisi": 4610,
      "gufunga": 4611,
      "mitu": 4612,
      "nyine": 4613,
      "fdlr": 4614,
      "gusin": 4615,
      "##kurikiranyweho": 4616,
      "nin": 4617,
      "abone": 4618,
      "mwarimu": 4619,
      "ubure": 4620,
      "##lix": 4621,
      "paris": 4622,
      "##rwanyi": 4623,
      "facebook": 4624,
      "ivu": 4625,
      "ituma": 4626,
      "aribwo": 4627,
      "##giraga": 4628,
      "far": 4629,
      "stan": 4630,
      "##byaro": 4631,
      "bucuruzi": 4632,
      "##byini": 4633,
      "isura": 4634,
      "imanza": 4635,
      "nyabi": 4636,
      "babaga": 4637,
      "abaturanyi": 4638,
      "mupira": 4639,
      "nizeyimana": 4640,
      "##ranywa": 4641,
      "##merere": 4642,
      "##raniye": 4643,
      "univers": 4644,
      "##sp": 4645,
      "rushinzwe": 4646,
      "##dufasha": 4647,
      "umugabane": 4648,
      "09": 4649,
      "what": 4650,
      "kugaruka": 4651,
      "bakavuga": 4652,
      "##hangayiki": 4653,
      "##gne": 4654,
      "banjye": 4655,
      "##mererwa": 4656,
      "gutaha": 4657,
      "2008": 4658,
      "##gariro": 4659,
      "54": 4660,
      "##kw": 4661,
      "banyeshuri": 4662,
      "inzobere": 4663,
      "##byino": 4664,
      "##liyani": 4665,
      "yegukanye": 4666,
      "guverineri": 4667,
      "bank": 4668,
      "##rise": 4669,
      "women": 4670,
      "mine": 4671,
      "##mwo": 4672,
      "##sengesho": 4673,
      "rikomeye": 4674,
      "##up": 4675,
      "majyepfo": 4676,
      "ed": 4677,
      "##nganira": 4678,
      "niyonzima": 4679,
      "39": 4680,
      "bize": 4681,
      "ubutu": 4682,
      "imashini": 4683,
      "##poir": 4684,
      "##stitu": 4685,
      "umuhango": 4686,
      "bukomeye": 4687,
      "batazi": 4688,
      "ingagi": 4689,
      "binyuranye": 4690,
      "##yuranye": 4691,
      "##cul": 4692,
      "bemeza": 4693,
      "cor": 4694,
      "##weho": 4695,
      "fami": 4696,
      "cyenda": 4697,
      "basaga": 4698,
      "gushyirwa": 4699,
      "48": 4700,
      "igena": 4701,
      "##ranisha": 4702,
      "##yange": 4703,
      "##enne": 4704,
      "##miwe": 4705,
      "##subije": 4706,
      "inge": 4707,
      "ibisabwa": 4708,
      "##rabuzima": 4709,
      "##girana": 4710,
      "gufatanya": 4711,
      "gre": 4712,
      "##cs": 4713,
      "kubanza": 4714,
      "namwe": 4715,
      "##cono": 4716,
      "06": 4717,
      "gise": 4718,
      "ugira": 4719,
      "yagu": 4720,
      "ruguru": 4721,
      "avu": 4722,
      "##gishije": 4723,
      "virus": 4724,
      "##nezero": 4725,
      "##bazwa": 4726,
      "##tuye": 4727,
      "ango": 4728,
      "cyemezo": 4729,
      "albu": 4730,
      "bwanjye": 4731,
      "yavugaga": 4732,
      "umwanditsi": 4733,
      "guhe": 4734,
      "ihazabu": 4735,
      "abakiriya": 4736,
      "##rinde": 4737,
      "bigomba": 4738,
      "##keka": 4739,
      "kt": 4740,
      "##hanganira": 4741,
      "gisagara": 4742,
      "##ars": 4743,
      "##ruta": 4744,
      "kwerekana": 4745,
      "##ters": 4746,
      "##chard": 4747,
      "bafashe": 4748,
      "##ranije": 4749,
      "yakiriye": 4750,
      "nazo": 4751,
      "##beho": 4752,
      "basi": 4753,
      "amadini": 4754,
      "##bite": 4755,
      "gusubiza": 4756,
      "ikira": 4757,
      "espoir": 4758,
      "##zamura": 4759,
      "icyubahiro": 4760,
      "syste": 4761,
      "nona": 4762,
      "mug": 4763,
      "##guke": 4764,
      "##ders": 4765,
      "coo": 4766,
      "##baka": 4767,
      "ruhu": 4768,
      "ngiye": 4769,
      "nkaba": 4770,
      "kurengera": 4771,
      "akabi": 4772,
      "##tegereza": 4773,
      "##sobanukirwa": 4774,
      "yindi": 4775,
      "##tsindiye": 4776,
      "school": 4777,
      "##rinzi": 4778,
      "ubwandu": 4779,
      "rwabu": 4780,
      "##mogi": 4781,
      "ingano": 4782,
      "best": 4783,
      "bra": 4784,
      "intsinzi": 4785,
      "##mirimo": 4786,
      "##cel": 4787,
      "##shyitsi": 4788,
      "##rate": 4789,
      "kapiteni": 4790,
      "##sirayeli": 4791,
      "kabera": 4792,
      "umugisha": 4793,
      "tegeko": 4794,
      "##shingizi": 4795,
      "##wn": 4796,
      "##fuzi": 4797,
      "##ux": 4798,
      "ubuhamya": 4799,
      "##shyiramo": 4800,
      "araba": 4801,
      "kwitegura": 4802,
      "##hamagara": 4803,
      "##migambi": 4804,
      "kwite": 4805,
      "##yahudi": 4806,
      "koreya": 4807,
      "shi": 4808,
      "##banire": 4809,
      "ubwiyunge": 4810,
      "atanu": 4811,
      "cen": 4812,
      "yahu": 4813,
      "martin": 4814,
      "##yongere": 4815,
      "amako": 4816,
      "richard": 4817,
      "diane": 4818,
      "##diyo": 4819,
      "nimero": 4820,
      "urukingo": 4821,
      "munya": 4822,
      "seru": 4823,
      "##injiye": 4824,
      "real": 4825,
      "meya": 4826,
      "umuce": 4827,
      "##jeje": 4828,
      "stu": 4829,
      "nderabuzima": 4830,
      "hamaze": 4831,
      "##led": 4832,
      "##ung": 4833,
      "itara": 4834,
      "patrio": 4835,
      "miche": 4836,
      "##shyuhe": 4837,
      "imirenge": 4838,
      "ryita": 4839,
      "imyamba": 4840,
      "##ntu": 4841,
      "yemeye": 4842,
      "##dri": 4843,
      "incu": 4844,
      "##renzi": 4845,
      "##rizo": 4846,
      "iwe": 4847,
      "##tanira": 4848,
      "tom": 4849,
      "akanama": 4850,
      "munyaneza": 4851,
      "##ruhuko": 4852,
      "##ace": 4853,
      "##soni": 4854,
      "prin": 4855,
      "bikoresho": 4856,
      "urimo": 4857,
      "bafitanye": 4858,
      "yerekana": 4859,
      "##zwaga": 4860,
      "kitari": 4861,
      "ik": 4862,
      "pr": 4863,
      "##tor": 4864,
      "inclu": 4865,
      "##munsi": 4866,
      "nyungwe": 4867,
      "nyaka": 4868,
      "##hh": 4869,
      "ubushinwa": 4870,
      "ingenga": 4871,
      "kurangiza": 4872,
      "ibye": 4873,
      "kwiyamamaza": 4874,
      "44": 4875,
      "##ges": 4876,
      "nonaha": 4877,
      "tanzaniya": 4878,
      "budage": 4879,
      "##mpe": 4880,
      "hoteli": 4881,
      "sibo": 4882,
      "##meka": 4883,
      "christi": 4884,
      "ak": 4885,
      "##vugwaho": 4886,
      "wasanga": 4887,
      "mashusho": 4888,
      "##shuti": 4889,
      "atuye": 4890,
      "ibisa": 4891,
      "ntiha": 4892,
      "inyeshyamba": 4893,
      "##bri": 4894,
      "impande": 4895,
      "abayoboke": 4896,
      "##pas": 4897,
      "##boneye": 4898,
      "ngamba": 4899,
      "umurambo": 4900,
      "album": 4901,
      "econo": 4902,
      "##butse": 4903,
      "##mbika": 4904,
      "badafite": 4905,
      "##mutima": 4906,
      "##garagambyo": 4907,
      "ngira": 4908,
      "az": 4909,
      "contin": 4910,
      "##mamaza": 4911,
      "sahara": 4912,
      "buga": 4913,
      "##vugaho": 4914,
      "##two": 4915,
      "##fate": 4916,
      "imibiri": 4917,
      "##sinzi": 4918,
      "champions": 4919,
      "nacyo": 4920,
      "gutandukana": 4921,
      "govern": 4922,
      "bigenda": 4923,
      "##fungurwa": 4924,
      "myugariro": 4925,
      "##hinduye": 4926,
      "##gatifu": 4927,
      "israel": 4928,
      "##shoboraga": 4929,
      "kunoza": 4930,
      "##ringanire": 4931,
      "##shidikanya": 4932,
      "##ganyije": 4933,
      "gusenga": 4934,
      "amaboko": 4935,
      "##fari": 4936,
      "kitwa": 4937,
      "bakundana": 4938,
      "dukora": 4939,
      "abategetsi": 4940,
      "kivuga": 4941,
      "shuri": 4942,
      "##heli": 4943,
      "nyafurika": 4944,
      "##ek": 4945,
      "umupaka": 4946,
      "urumva": 4947,
      "##gure": 4948,
      "##h00": 4949,
      "bahe": 4950,
      "##ngani": 4951,
      "yaguye": 4952,
      "tuni": 4953,
      "##rien": 4954,
      "##wandiko": 4955,
      "##sipan": 4956,
      "##garije": 4957,
      "##ngwa": 4958,
      "bubi": 4959,
      "igeze": 4960,
      "##gema": 4961,
      "##bora": 4962,
      "ubutwari": 4963,
      "south": 4964,
      "##masa": 4965,
      "##sion": 4966,
      "ikiri": 4967,
      "##fuje": 4968,
      "health": 4969,
      "##mbano": 4970,
      "##bashije": 4971,
      "##tura": 4972,
      "##shakisha": 4973,
      "yemera": 4974,
      "batanze": 4975,
      "##sobanurira": 4976,
      "rdb": 4977,
      "##ngeye": 4978,
      "##raniro": 4979,
      "rifite": 4980,
      "musi": 4981,
      "kumara": 4982,
      "##kon": 4983,
      "amaka": 4984,
      "##try": 4985,
      "abami": 4986,
      "waje": 4987,
      "kubyara": 4988,
      "##birwa": 4989,
      "##moso": 4990,
      "umwenda": 4991,
      "##mburwa": 4992,
      "rusengero": 4993,
      "bahi": 4994,
      "##guma": 4995,
      "yaseze": 4996,
      "kuririmba": 4997,
      "##manzi": 4998,
      "bibaye": 4999,
      "kumenye": 5000,
      "nyamasheke": 5001,
      "99a": 5002,
      "##dukunda": 5003,
      "gusubi": 5004,
      "aro": 5005,
      "bigamije": 5006,
      "david": 5007,
      "umugoroba": 5008,
      "kwemera": 5009,
      "ujya": 5010,
      "bakorana": 5011,
      "nye": 5012,
      "ukunda": 5013,
      "##pen": 5014,
      "##hangano": 5015,
      "gukome": 5016,
      "##gurura": 5017,
      "kubwira": 5018,
      "amatwi": 5019,
      "buke": 5020,
      "ibiryo": 5021,
      "zindi": 5022,
      "muga": 5023,
      "yatanzwe": 5024,
      "##teguwe": 5025,
      "##hite": 5026,
      "##mbire": 5027,
      "tanga": 5028,
      "##kurura": 5029,
      "nkunda": 5030,
      "ingoma": 5031,
      "samuel": 5032,
      "myi": 5033,
      "hagiye": 5034,
      "yigisha": 5035,
      "##yongereye": 5036,
      "wita": 5037,
      "02": 5038,
      "babanje": 5039,
      "##habu": 5040,
      "wabereye": 5041,
      "nyabu": 5042,
      "##byaza": 5043,
      "asobanura": 5044,
      "twabi": 5045,
      "##kundaga": 5046,
      "imigabane": 5047,
      "umunyeshuri": 5048,
      "angola": 5049,
      "##bajije": 5050,
      "nibi": 5051,
      "zibi": 5052,
      "centre": 5053,
      "46": 5054,
      "mbu": 5055,
      "##mpi": 5056,
      "##duha": 5057,
      "angana": 5058,
      "##runga": 5059,
      "##baha": 5060,
      "bufite": 5061,
      "paruwa": 5062,
      "##baje": 5063,
      "##mbaro": 5064,
      "##hamye": 5065,
      "gaso": 5066,
      "izwi": 5067,
      "##mbanya": 5068,
      "##bangamiye": 5069,
      "##kiran": 5070,
      "murimo": 5071,
      "peace": 5072,
      "nyamagabe": 5073,
      "parti": 5074,
      "guhanga": 5075,
      "##tiwe": 5076,
      "##llo": 5077,
      "##hia": 5078,
      "##funguro": 5079,
      "52": 5080,
      "##ziti": 5081,
      "##raribonye": 5082,
      "zinyuranye": 5083,
      "urwa": 5084,
      "gushyin": 5085,
      "##illa": 5086,
      "flo": 5087,
      "son": 5088,
      "##tant": 5089,
      "rwiyemeza": 5090,
      "tshi": 5091,
      "##dari": 5092,
      "informa": 5093,
      "##shaje": 5094,
      "ibishoboka": 5095,
      "social": 5096,
      "sitasiyo": 5097,
      "aganira": 5098,
      "##beti": 5099,
      "kuboneka": 5100,
      "##sure": 5101,
      "##widi": 5102,
      "kigizwe": 5103,
      "mupaka": 5104,
      "kubyi": 5105,
      "tech": 5106,
      "ubwabo": 5107,
      "##kristu": 5108,
      "kuku": 5109,
      "nkiko": 5110,
      "##gua": 5111,
      "ubufaransa": 5112,
      "##shejwe": 5113,
      "amen": 5114,
      "##giteri": 5115,
      "##hereje": 5116,
      "maboko": 5117,
      "politike": 5118,
      "##kinisha": 5119,
      "bivuga": 5120,
      "eng": 5121,
      "dosi": 5122,
      "bise": 5123,
      "yasa": 5124,
      "konge": 5125,
      "##mbabwe": 5126,
      "##iness": 5127,
      "##bantu": 5128,
      "##subiye": 5129,
      "tsinda": 5130,
      "##ns": 5131,
      "asaga": 5132,
      "mt": 5133,
      "umujyanama": 5134,
      "lou": 5135,
      "##baho": 5136,
      "matsinda": 5137,
      "##perezida": 5138,
      "umuceri": 5139,
      "bakina": 5140,
      "##miye": 5141,
      "##guza": 5142,
      "##kundwa": 5143,
      "##sun": 5144,
      "banduye": 5145,
      "imbwa": 5146,
      "##ganisha": 5147,
      "kuguma": 5148,
      "gutyo": 5149,
      "##shop": 5150,
      "mukaka": 5151,
      "ishyirwa": 5152,
      "zacu": 5153,
      "mwiherero": 5154,
      "igenamigambi": 5155,
      "##ft": 5156,
      "bine": 5157,
      "##tro": 5158,
      "hakoreshejwe": 5159,
      "atazi": 5160,
      "##kurikiye": 5161,
      "yavutse": 5162,
      "ntitu": 5163,
      "donald": 5164,
      "nubu": 5165,
      "##itangazamakuru": 5166,
      "ishusho": 5167,
      "##ant": 5168,
      "abare": 5169,
      "mbabazi": 5170,
      "##bani": 5171,
      "##kode": 5172,
      "##kuzi": 5173,
      "were": 5174,
      "aje": 5175,
      "bur": 5176,
      "##gwiro": 5177,
      "ibinyamakuru": 5178,
      "zara": 5179,
      "##yoro": 5180,
      "##bika": 5181,
      "kavu": 5182,
      "ten": 5183,
      "##11": 5184,
      "##byaha": 5185,
      "heza": 5186,
      "aca": 5187,
      "##hiye": 5188,
      "sala": 5189,
      "oms": 5190,
      "##moni": 5191,
      "umuvuduko": 5192,
      "agri": 5193,
      "imyuga": 5194,
      "plan": 5195,
      "ndabona": 5196,
      "##sti": 5197,
      "hazaba": 5198,
      "depite": 5199,
      "magu": 5200,
      "mwuga": 5201,
      "republi": 5202,
      "urumogi": 5203,
      "nshimiyimana": 5204,
      "kanada": 5205,
      "##gagaciro": 5206,
      "university": 5207,
      "akanya": 5208,
      "imbuga": 5209,
      "imikoranire": 5210,
      "beza": 5211,
      "poro": 5212,
      "christian": 5213,
      "inya": 5214,
      "nyaruguru": 5215,
      "ibyuma": 5216,
      "ikinya": 5217,
      "##hariwe": 5218,
      "cp": 5219,
      "mari": 5220,
      "##rand": 5221,
      "imizi": 5222,
      "akoresha": 5223,
      "mukaba": 5224,
      "ubushyuhe": 5225,
      "zirenga": 5226,
      "agamije": 5227,
      "geor": 5228,
      "amanywa": 5229,
      "##cor": 5230,
      "##rique": 5231,
      "abati": 5232,
      "99aba": 5233,
      "jacques": 5234,
      "habayeho": 5235,
      "other": 5236,
      "banga": 5237,
      "abafatanyabikorwa": 5238,
      "##hondo": 5239,
      "igifaransa": 5240,
      "yanze": 5241,
      "bidasanzwe": 5242,
      "kabuga": 5243,
      "rwiyemezamirimo": 5244,
      "##garara": 5245,
      "muturage": 5246,
      "chief": 5247,
      "ryan": 5248,
      "cyara": 5249,
      "secon": 5250,
      "##huta": 5251,
      "country": 5252,
      "munani": 5253,
      "##hisemo": 5254,
      "hegita": 5255,
      "kibi": 5256,
      "rikaba": 5257,
      "paruwasi": 5258,
      "nsan": 5259,
      "##saza": 5260,
      "kamere": 5261,
      "bava": 5262,
      "zimbabwe": 5263,
      "kwegukana": 5264,
      "afrika": 5265,
      "uhereye": 5266,
      "yakozwe": 5267,
      "mashya": 5268,
      "bwu": 5269,
      "yiga": 5270,
      "yishwe": 5271,
      "##aa": 5272,
      "##hembe": 5273,
      "47": 5274,
      "##yemera": 5275,
      "file": 5276,
      "##ance": 5277,
      "urubyaro": 5278,
      "bahuye": 5279,
      "##songa": 5280,
      "yashyizeho": 5281,
      "rgb": 5282,
      "##die": 5283,
      "##ston": 5284,
      "education": 5285,
      "##guta": 5286,
      "##hirwa": 5287,
      "una": 5288,
      "christo": 5289,
      "##jana": 5290,
      "##teur": 5291,
      "kwemeza": 5292,
      "##lley": 5293,
      "phi": 5294,
      "ibibi": 5295,
      "eva": 5296,
      "ishema": 5297,
      "9d": 5298,
      "isaba": 5299,
      "##rst": 5300,
      "##kuko": 5301,
      "##sekedi": 5302,
      "base": 5303,
      "kika": 5304,
      "byayo": 5305,
      "##kubise": 5306,
      "##funguye": 5307,
      "kohereza": 5308,
      "##shingira": 5309,
      "ryose": 5310,
      "yakwi": 5311,
      "kdi": 5312,
      "akoresheje": 5313,
      "##hakana": 5314,
      "yakoraga": 5315,
      "bibu": 5316,
      "azwi": 5317,
      "bap": 5318,
      "kwicwa": 5319,
      "murwa": 5320,
      "rutanga": 5321,
      "rev": 5322,
      "yezu": 5323,
      "##shon": 5324,
      "gishobora": 5325,
      "##sohotse": 5326,
      "##dagadu": 5327,
      "##ije": 5328,
      "##len": 5329,
      "ikigega": 5330,
      "##negihugu": 5331,
      "ntiyi": 5332,
      "year": 5333,
      "##nyine": 5334,
      "guhinga": 5335,
      "##stine": 5336,
      "dosiye": 5337,
      "##ach": 5338,
      "habonetse": 5339,
      "yewe": 5340,
      "ubwonko": 5341,
      "gutunganya": 5342,
      "gakenke": 5343,
      "ter": 5344,
      "mal": 5345,
      "mihanda": 5346,
      "out": 5347,
      "tubona": 5348,
      "impamyabumenyi": 5349,
      "oba": 5350,
      "bwayo": 5351,
      "president": 5352,
      "ike": 5353,
      "##ition": 5354,
      "amubwira": 5355,
      "artic": 5356,
      "ishaka": 5357,
      "umuhanga": 5358,
      "twifuza": 5359,
      "baran": 5360,
      "abarenga": 5361,
      "years": 5362,
      "##kuza": 5363,
      "##ringiro": 5364,
      "sco": 5365,
      "##gurika": 5366,
      "##yongeraho": 5367,
      "oya": 5368,
      "ino": 5369,
      "bizi": 5370,
      "##shimu": 5371,
      "yerekeza": 5372,
      "ubwongereza": 5373,
      "##ramutse": 5374,
      "yateye": 5375,
      "rukomeye": 5376,
      "000frw": 5377,
      "ankara": 5378,
      "augu": 5379,
      "kubikora": 5380,
      "amagare": 5381,
      "##kekwaho": 5382,
      "gucunga": 5383,
      "bajye": 5384,
      "perefe": 5385,
      "600": 5386,
      "##ard": 5387,
      "##ocide": 5388,
      "made": 5389,
      "##linda": 5390,
      "patriots": 5391,
      "##myabiri": 5392,
      "yinjiye": 5393,
      "##taha": 5394,
      "chri": 5395,
      "urebye": 5396,
      "uwama": 5397,
      "##erry": 5398,
      "##fatira": 5399,
      "##riritse": 5400,
      "bigi": 5401,
      "zaba": 5402,
      "bahuriye": 5403,
      "akoze": 5404,
      "##rukan": 5405,
      "umupolisi": 5406,
      "##hanwa": 5407,
      "##chester": 5408,
      "photo": 5409,
      "ihohoterwa": 5410,
      "rwandan": 5411,
      "##garagariza": 5412,
      "195": 5413,
      "ahani": 5414,
      "##karaba": 5415,
      "##ens": 5416,
      "75": 5417,
      "##sheho": 5418,
      "##her": 5419,
      "konti": 5420,
      "##gitura": 5421,
      "2003": 5422,
      "cameroun": 5423,
      "##cungire": 5424,
      "filimi": 5425,
      "thumb": 5426,
      "##gande": 5427,
      "bitanu": 5428,
      "volley": 5429,
      "##cted": 5430,
      "airtel": 5431,
      "makumyabiri": 5432,
      "##lf": 5433,
      "amajyambere": 5434,
      "amb": 5435,
      "##yane": 5436,
      "gera": 5437,
      "98": 5438,
      "ibinyabiziga": 5439,
      "yves": 5440,
      "kur": 5441,
      "bawe": 5442,
      "yohana": 5443,
      "bute": 5444,
      "##shyiriweho": 5445,
      "indimi": 5446,
      "bahura": 5447,
      "abanduye": 5448,
      "tshisekedi": 5449,
      "bafun": 5450,
      "euro": 5451,
      "##uri": 5452,
      "gukin": 5453,
      "mwinshi": 5454,
      "##munara": 5455,
      "##shingiwe": 5456,
      "##cisha": 5457,
      "urwan": 5458,
      "##tina": 5459,
      "##hitanye": 5460,
      "yamenye": 5461,
      "promo": 5462,
      "impuguke": 5463,
      "##holan": 5464,
      "ruka": 5465,
      "abavuga": 5466,
      "sadate": 5467,
      "##ranyijwe": 5468,
      "butu": 5469,
      "abicanyi": 5470,
      "##tangije": 5471,
      "saint": 5472,
      "enye": 5473,
      "gutangiza": 5474,
      "##guha": 5475,
      "uburasirazuba": 5476,
      "ibitaramo": 5477,
      "manzi": 5478,
      "##rc": 5479,
      "house": 5480,
      "guhungabanya": 5481,
      "mahoro": 5482,
      "##chael": 5483,
      "ndayishimiye": 5484,
      "##bure": 5485,
      "hab": 5486,
      "##kangu": 5487,
      "when": 5488,
      "##myo": 5489,
      "##rusa": 5490,
      "kuvura": 5491,
      "abatoza": 5492,
      "gasogi": 5493,
      "arenga": 5494,
      "mubyeyi": 5495,
      "byakozwe": 5496,
      "hariya": 5497,
      "##jora": 5498,
      "##mamaye": 5499,
      "uwu": 5500,
      "##rarwanda": 5501,
      "byatangajwe": 5502,
      "ruzi": 5503,
      "##mbiye": 5504,
      "mpande": 5505,
      "ntimu": 5506,
      "##pon": 5507,
      "guhora": 5508,
      "##simbura": 5509,
      "##rson": 5510,
      "iradukunda": 5511,
      "rba": 5512,
      "##itsin": 5513,
      "muziki": 5514,
      "##pf": 5515,
      "##ries": 5516,
      "##ney": 5517,
      "##gayi": 5518,
      "kibu": 5519,
      "bwacu": 5520,
      "194": 5521,
      "muhire": 5522,
      "iherereye": 5523,
      "kubafasha": 5524,
      "christophe": 5525,
      "##cira": 5526,
      "manchester": 5527,
      "##zinduko": 5528,
      "haka": 5529,
      "rute": 5530,
      "##tsiro": 5531,
      "abaki": 5532,
      "akagera": 5533,
      "##yoboraga": 5534,
      "kuzamuka": 5535,
      "##banutse": 5536,
      "##kumi": 5537,
      "hakuriki": 5538,
      "ruke": 5539,
      "ryabo": 5540,
      "nyobozi": 5541,
      "53": 5542,
      "akorera": 5543,
      "glo": 5544,
      "umurwayi": 5545,
      "burezi": 5546,
      "##win": 5547,
      "bakomoka": 5548,
      "##ngeri": 5549,
      "inkoko": 5550,
      "been": 5551,
      "isabukuru": 5552,
      "iwacu": 5553,
      "##px": 5554,
      "##generwa": 5555,
      "nkera": 5556,
      "##buzima": 5557,
      "amaba": 5558,
      "##celles": 5559,
      "##dagaduro": 5560,
      "kizaba": 5561,
      "sibomana": 5562,
      "loni": 5563,
      "##giri": 5564,
      "ingengabitekerezo": 5565,
      "guhana": 5566,
      "east": 5567,
      "##din": 5568,
      "bimenyetso": 5569,
      "nyamwa": 5570,
      "won": 5571,
      "gucika": 5572,
      "haje": 5573,
      "##bukije": 5574,
      "yaravuze": 5575,
      "them": 5576,
      "gitifu": 5577,
      "##burira": 5578,
      "gufungura": 5579,
      "##dera": 5580,
      "cyamunara": 5581,
      "hegitari": 5582,
      "800": 5583,
      "ivo": 5584,
      "ibyabaye": 5585,
      "bawu": 5586,
      "rusa": 5587,
      "imirire": 5588,
      "guharanira": 5589,
      "##silamu": 5590,
      "##shisho": 5591,
      "ndumva": 5592,
      "mpanuka": 5593,
      "babyi": 5594,
      "##yoboro": 5595,
      "shin": 5596,
      "rishya": 5597,
      "##ille": 5598,
      "##kubiye": 5599,
      "##rabura": 5600,
      "##byemera": 5601,
      "isomo": 5602,
      "##gonda": 5603,
      "kamu": 5604,
      "ibigori": 5605,
      "##tus": 5606,
      "mibereho": 5607,
      "tou": 5608,
      "dja": 5609,
      "basabye": 5610,
      "##onjora": 5611,
      "atangaza": 5612,
      "##rence": 5613,
      "ukwiye": 5614,
      "abisirayeli": 5615,
      "equ": 5616,
      "kabo": 5617,
      "dushobora": 5618,
      "irenga": 5619,
      "abayahudi": 5620,
      "##gufasha": 5621,
      "##zon": 5622,
      "first": 5623,
      "ahanishwa": 5624,
      "iji": 5625,
      "nzaba": 5626,
      "vc": 5627,
      "america": 5628,
      "wigeze": 5629,
      "##fatirwa": 5630,
      "mukakarangwa": 5631,
      "umuta": 5632,
      "rutsiro": 5633,
      "br": 5634,
      "mafoto": 5635,
      "ikirego": 5636,
      "isoni": 5637,
      "fore": 5638,
      "ifatwa": 5639,
      "wakoze": 5640,
      "imyambaro": 5641,
      "05": 5642,
      "hatangi": 5643,
      "sudan": 5644,
      "ajyanye": 5645,
      "##cts": 5646,
      "yasobanuye": 5647,
      "intama": 5648,
      "ndanga": 5649,
      "##plo": 5650,
      "##tube": 5651,
      "burera": 5652,
      "goma": 5653,
      "gisenyi": 5654,
      "nyamwasa": 5655,
      "bambaye": 5656,
      "business": 5657,
      "uwan": 5658,
      "##tincelles": 5659,
      "basigaye": 5660,
      "ndende": 5661,
      "article": 5662,
      "##inea": 5663,
      "##politiki": 5664,
      "fred": 5665,
      "##kuze": 5666,
      "kimenyi": 5667,
      "ukorera": 5668,
      "##yanja": 5669,
      "rt": 5670,
      "ukiri": 5671,
      "##sabira": 5672,
      "##dege": 5673,
      "##mburo": 5674,
      "##zambi": 5675,
      "##car": 5676,
      "ujye": 5677,
      "##vest": 5678,
      "##fuka": 5679,
      "ayobora": 5680,
      "namu": 5681,
      "##remye": 5682,
      "babe": 5683,
      "akaya": 5684,
      "commun": 5685,
      "gusiga": 5686,
      "biden": 5687,
      "##himba": 5688,
      "media": 5689,
      "uburinganire": 5690,
      "kuvugana": 5691,
      "itandatu": 5692,
      "##kishwa": 5693,
      "gusuzuma": 5694,
      "intanga": 5695,
      "##vuge": 5696,
      "proje": 5697,
      "##cen": 5698,
      "##hagarara": 5699,
      "ele": 5700,
      "##kereje": 5701,
      "guhinduka": 5702,
      "##sobe": 5703,
      "##lemu": 5704,
      "bashinzwe": 5705,
      "ingana": 5706,
      "hana": 5707,
      "ishingiye": 5708,
      "gutora": 5709,
      "institu": 5710,
      "nabonye": 5711,
      "51": 5712,
      "imbyino": 5713,
      "aricyo": 5714,
      "bapfuye": 5715,
      "ibyumba": 5716,
      "ikibuga": 5717,
      "##kurikiraho": 5718,
      "dro": 5719,
      "##padiri": 5720,
      "dawidi": 5721,
      "guterwa": 5722,
      "##koloni": 5723,
      "abanyafurika": 5724,
      "gitero": 5725,
      "batandatu": 5726,
      "biteguye": 5727,
      "gor": 5728,
      "##huka": 5729,
      "##less": 5730,
      "ubuhu": 5731,
      "##garitse": 5732,
      "##lbert": 5733,
      "##koni": 5734,
      "birashoboka": 5735,
      "yatewe": 5736,
      "sil": 5737,
      "yashize": 5738,
      "umuvandimwe": 5739,
      "abafaransa": 5740,
      "##lon": 5741,
      "##shushanyo": 5742,
      "##bwiraga": 5743,
      "yiba": 5744,
      "gorilla": 5745,
      "##mbwira": 5746,
      "##rebwa": 5747,
      "basabwa": 5748,
      "riba": 5749,
      "adu": 5750,
      "yitabye": 5751,
      "##gogo": 5752,
      "ibisobanuro": 5753,
      "kuzana": 5754,
      "mose": 5755,
      "##taba": 5756,
      "uwe": 5757,
      "##kurikirwa": 5758,
      "##kurya": 5759,
      "throu": 5760,
      "yahoze": 5761,
      "ifasha": 5762,
      "##cra": 5763,
      "kumvikana": 5764,
      "izajya": 5765,
      "abashaka": 5766,
      "moro": 5767,
      "bigera": 5768,
      "##oney": 5769,
      "1000": 5770,
      "bla": 5771,
      "uwahoze": 5772,
      "##mungu": 5773,
      "##kunde": 5774,
      "theogene": 5775,
      "##gereje": 5776,
      "##ning": 5777,
      "yishimiye": 5778,
      "iyobowe": 5779,
      "##yiko": 5780,
      "##yoborwa": 5781,
      "bigoye": 5782,
      "##lica": 5783,
      "yakoresheje": 5784,
      "manager": 5785,
      "tuyisenge": 5786,
      "etincelles": 5787,
      "ameze": 5788,
      "manota": 5789,
      "uvuye": 5790,
      "kwizihiza": 5791,
      "ambasade": 5792,
      "babone": 5793,
      "colle": 5794,
      "##swahili": 5795,
      "abarwanyi": 5796,
      "mazu": 5797,
      "yuzuye": 5798,
      "eve": 5799,
      "##mbya": 5800,
      "mugu": 5801,
      "there": 5802,
      "kuruta": 5803,
      "ibikombe": 5804,
      "munyarwanda": 5805,
      "volleyball": 5806,
      "babaye": 5807,
      "umuganga": 5808,
      "##tanya": 5809,
      "##ling": 5810,
      "##yobwa": 5811,
      "birebana": 5812,
      "##byu": 5813,
      "noheli": 5814,
      "banyu": 5815,
      "basore": 5816,
      "##buke": 5817,
      "##subu": 5818,
      "commi": 5819,
      "sinzi": 5820,
      "byatuma": 5821,
      "michael": 5822,
      "eac": 5823,
      "##himana": 5824,
      "##hutira": 5825,
      "##rp": 5826,
      "##dindi": 5827,
      "indu": 5828,
      "##cece": 5829,
      "##pany": 5830,
      "43": 5831,
      "dj": 5832,
      "bamwi": 5833,
      "##mejwe": 5834,
      "imbibi": 5835,
      "yasohoye": 5836,
      "##bindi": 5837,
      "##hitan": 5838,
      "kuti": 5839,
      "bishop": 5840,
      "tuki": 5841,
      "##cie": 5842,
      "million": 5843,
      "yahuye": 5844,
      "##ities": 5845,
      "yatwaye": 5846,
      "yakoreye": 5847,
      "##kubiyemo": 5848,
      "##kundiro": 5849,
      "##roheje": 5850,
      "yazi": 5851,
      "burusiya": 5852,
      "mashami": 5853,
      "abarokotse": 5854,
      "misozi": 5855,
      "##yamamariza": 5856,
      "genocide": 5857,
      "rwandair": 5858,
      "nyakuri": 5859,
      "yatawe": 5860,
      "abura": 5861,
      "gukubita": 5862,
      "ndagi": 5863,
      "biturutse": 5864,
      "##at": 5865,
      "##kubiri": 5866,
      "ibipimo": 5867,
      "nkaho": 5868,
      "##shyuye": 5869,
      "inkoni": 5870,
      "igenda": 5871,
      "##10": 5872,
      "babyeyi": 5873,
      "##gango": 5874,
      "##mvu": 5875,
      "umugi": 5876,
      "ibihu": 5877,
      "magufu": 5878,
      "gutsindwa": 5879,
      "ubuvugizi": 5880,
      "mitwe": 5881,
      "thierry": 5882,
      "penal": 5883,
      "use": 5884,
      "##hing": 5885,
      "##mbuzi": 5886,
      "yongera": 5887,
      "uherutse": 5888,
      "gro": 5889,
      "##tegura": 5890,
      "##pre": 5891,
      "##bal": 5892,
      "##zure": 5893,
      "state": 5894,
      "##duza": 5895,
      "##tta": 5896,
      "bashakanye": 5897,
      "byatangiye": 5898,
      "sto": 5899,
      "pawu": 5900,
      "##kabaye": 5901,
      "buhinde": 5902,
      "dusa": 5903,
      "mwashakanye": 5904,
      "##gendeye": 5905,
      "ng": 5906,
      "##times": 5907,
      "bushobozi": 5908,
      "mozambi": 5909,
      "plat": 5910,
      "##val": 5911,
      "mishinga": 5912,
      "buhoro": 5913,
      "kurenga": 5914,
      "rure": 5915,
      "55": 5916,
      "kugwa": 5917,
      "##kweto": 5918,
      "##pfobya": 5919,
      "##mwuga": 5920,
      "##ctive": 5921,
      "bizatuma": 5922,
      "youth": 5923,
      "nsengiyumva": 5924,
      "kuvugwa": 5925,
      "ibyan": 5926,
      "nyir": 5927,
      "if": 5928,
      "abashoramari": 5929,
      "imvugo": 5930,
      "some": 5931,
      "zahabu": 5932,
      "##lation": 5933,
      "##stru": 5934,
      "inkomoko": 5935,
      "##girika": 5936,
      "##sani": 5937,
      "zimaze": 5938,
      "guka": 5939,
      "kilometero": 5940,
      "##fatiye": 5941,
      "ubusabe": 5942,
      "yafatiwe": 5943,
      "ubwishingizi": 5944,
      "##butumwa": 5945,
      "##jimana": 5946,
      "2005": 5947,
      "##bozo": 5948,
      "abarundi": 5949,
      "berna": 5950,
      "cer": 5951,
      "biteye": 5952,
      "cri": 5953,
      "##diko": 5954,
      "ghana": 5955,
      "uzamu": 5956,
      "umucuruzi": 5957,
      "rukaba": 5958,
      "##lus": 5959,
      "##lp": 5960,
      "##gama": 5961,
      "babana": 5962,
      "##biya": 5963,
      "cyabaye": 5964,
      "ntawu": 5965,
      "masomo": 5966,
      "yaga": 5967,
      "inyigisho": 5968,
      "##mwita": 5969,
      "150": 5970,
      "josi": 5971,
      "##kaye": 5972,
      "65": 5973,
      "rwamu": 5974,
      "##komeretsa": 5975,
      "gucuruza": 5976,
      "bishingiye": 5977,
      "urw": 5978,
      "##df": 5979,
      "##yejana": 5980,
      "yihariye": 5981,
      "through": 5982,
      "##gozi": 5983,
      "kayita": 5984,
      "biki": 5985,
      "##henze": 5986,
      "kwibaza": 5987,
      "icyerekezo": 5988,
      "ijisho": 5989,
      "guho": 5990,
      "bihagije": 5991,
      "##sso": 5992,
      "##sitani": 5993,
      "##rejwe": 5994,
      "ikomeza": 5995,
      "##and": 5996,
      "gukira": 5997,
      "##ker": 5998,
      "mate": 5999,
      "##ganijwe": 6000,
      "##cana": 6001,
      "amatsinda": 6002,
      "##dina": 6003,
      "abajijwe": 6004,
      "##tiste": 6005,
      "andre": 6006,
      "ifata": 6007,
      "##lg": 6008,
      "yakinnye": 6009,
      "##shimana": 6010,
      "aze": 6011,
      "##vugana": 6012,
      "franco": 6013,
      "anasta": 6014,
      "##shyikirizwa": 6015,
      "runini": 6016,
      "urwibutso": 6017,
      "over": 6018,
      "karindwi": 6019,
      "victo": 6020,
      "mujye": 6021,
      "##yehova": 6022,
      "yaran": 6023,
      "##gororwa": 6024,
      "idasanzwe": 6025,
      "##boka": 6026,
      "wasa": 6027,
      "ibitu": 6028,
      "##bwirwa": 6029,
      "sam": 6030,
      "awu": 6031,
      "guinea": 6032,
      "##hemu": 6033,
      "##vise": 6034,
      "rishingiye": 6035,
      "pasi": 6036,
      "muvunyi": 6037,
      "##cho": 6038,
      "gushinga": 6039,
      "karekezi": 6040,
      "youtube": 6041,
      "##ng": 6042,
      "abazungu": 6043,
      "tugize": 6044,
      "juru": 6045,
      "ibe": 6046,
      "sofia": 6047,
      "musozi": 6048,
      "##cibwa": 6049,
      "yego": 6050,
      "super": 6051,
      "alfa": 6052,
      "68": 6053,
      "uk": 6054,
      "##byumva": 6055,
      "company": 6056,
      "habimana": 6057,
      "byagiye": 6058,
      "imitima": 6059,
      "government": 6060,
      "ger": 6061,
      "igihombo": 6062,
      "njya": 6063,
      "bukaba": 6064,
      "bifasha": 6065,
      "ntiwa": 6066,
      "##sanzure": 6067,
      "abashakanye": 6068,
      "system": 6069,
      "rukuru": 6070,
      "imihango": 6071,
      "hazaza": 6072,
      "##holandi": 6073,
      "pawulo": 6074,
      "mucyo": 6075,
      "##byaranye": 6076,
      "##dite": 6077,
      "##tain": 6078,
      "nor": 6079,
      "##herejwe": 6080,
      "1990": 6081,
      "stanley": 6082,
      "mina": 6083,
      "umukandida": 6084,
      "##itera": 6085,
      "##liza": 6086,
      "imyidagaduro": 6087,
      "##sanya": 6088,
      "barabi": 6089,
      "josiane": 6090,
      "##shing": 6091,
      "miri": 6092,
      "kwigira": 6093,
      "udushya": 6094,
      "##tar": 6095,
      "##ou": 6096,
      "##tego": 6097,
      "duce": 6098,
      "ibinyoma": 6099,
      "barcel": 6100,
      "##cti": 6101,
      "mac": 6102,
      "##furiza": 6103,
      "##jyanywe": 6104,
      "mukamu": 6105,
      "umunyezamu": 6106,
      "kurwara": 6107,
      "baganiriye": 6108,
      "##gome": 6109,
      "##herezo": 6110,
      "burengerazuba": 6111,
      "habu": 6112,
      "notes": 6113,
      "ntawa": 6114,
      "cyitwa": 6115,
      "kurwana": 6116,
      "bishya": 6117,
      "bikunze": 6118,
      "zin": 6119,
      "##mezwa": 6120,
      "niyi": 6121,
      "##fashijwe": 6122,
      "##tries": 6123,
      "yabitangaje": 6124,
      "intare": 6125,
      "marine": 6126,
      "ryitwa": 6127,
      "nyiran": 6128,
      "times": 6129,
      "nkunga": 6130,
      "umushinjacyaha": 6131,
      "countries": 6132,
      "##shyikiriza": 6133,
      "agricul": 6134,
      "yiteguye": 6135,
      "gusanga": 6136,
      "icyari": 6137,
      "##mbana": 6138,
      "ph": 6139,
      "byoroshye": 6140,
      "ibyiciro": 6141,
      "49": 6142,
      "gutoza": 6143,
      "##ires": 6144,
      "high": 6145,
      "##drid": 6146,
      "ajye": 6147,
      "ly": 6148,
      "##komereza": 6149,
      "jules": 6150,
      "sma": 6151,
      "bwakozwe": 6152,
      "##vuyemo": 6153,
      "egi": 6154,
      "##sabaga": 6155,
      "tha": 6156,
      "magufuli": 6157,
      "gukwirakwiza": 6158,
      "##cunga": 6159,
      "##viramo": 6160,
      "abaturarwanda": 6161,
      "bitera": 6162,
      "bagakora": 6163,
      "rwiza": 6164,
      "##rangamutima": 6165,
      "akimara": 6166,
      "##riba": 6167,
      "inyo": 6168,
      "##kennye": 6169,
      "ayoboye": 6170,
      "njyanama": 6171,
      "had": 6172,
      "mtn": 6173,
      "imisozi": 6174,
      "mukunzi": 6175,
      "umusirikare": 6176,
      "sugira": 6177,
      "tangazo": 6178,
      "alfabeti": 6179,
      "uburengerazuba": 6180,
      "ani": 6181,
      "human": 6182,
      "##hungabana": 6183,
      "##rusalemu": 6184,
      "free": 6185,
      "rene": 6186,
      "ven": 6187,
      "turaba": 6188,
      "bikaza": 6189,
      "##herukaga": 6190,
      "abakirisitu": 6191,
      "yashyizweho": 6192,
      "nkambi": 6193,
      "##lande": 6194,
      "inkingo": 6195,
      "##diya": 6196,
      "##rankunga": 6197,
      "byaje": 6198,
      "peter": 6199,
      "yagaragaye": 6200,
      "iriho": 6201,
      "yashakaga": 6202,
      "guhita": 6203,
      "ariya": 6204,
      "##manuka": 6205,
      "fau": 6206,
      "##lindo": 6207,
      "ob": 6208,
      "yabuze": 6209,
      "haruguru": 6210,
      "aturuka": 6211,
      "erne": 6212,
      "##zaho": 6213,
      "bigiye": 6214,
      "fifa": 6215,
      "kinsha": 6216,
      "union": 6217,
      "##zanira": 6218,
      "2006": 6219,
      "##roka": 6220,
      "gukaraba": 6221,
      "##dis": 6222,
      "zambia": 6223,
      "##logy": 6224,
      "services": 6225,
      "comp": 6226,
      "##fatanije": 6227,
      "##hugura": 6228,
      "zisaga": 6229,
      "rika": 6230,
      "itabi": 6231,
      "yerusalemu": 6232,
      "albert": 6233,
      "ave": 6234,
      "torero": 6235,
      "nyaba": 6236,
      "kwagura": 6237,
      "yagera": 6238,
      "bibaza": 6239,
      "##lity": 6240,
      "##deration": 6241,
      "madrid": 6242,
      "myitozo": 6243,
      "57": 6244,
      "##bahi": 6245,
      "##itekerere": 6246,
      "isuzu": 6247,
      "##miya": 6248,
      "kuzaba": 6249,
      "kay": 6250,
      "rulindo": 6251,
      "secu": 6252,
      "amadorali": 6253,
      "anto": 6254,
      "ubuntu": 6255,
      "ntaki": 6256,
      "mane": 6257,
      "ibara": 6258,
      "bak": 6259,
      "##cakubiri": 6260,
      "##gereranya": 6261,
      "abdu": 6262,
      "##dine": 6263,
      "##rukira": 6264,
      "buvu": 6265,
      "yagizwe": 6266,
      "ibitangaza": 6267,
      "yandikiye": 6268,
      "yama": 6269,
      "nijoro": 6270,
      "musenyeri": 6271,
      "inzozi": 6272,
      "ijya": 6273,
      "##mutse": 6274,
      "##anirwa": 6275,
      "##mvira": 6276,
      "gakomeye": 6277,
      "imboga": 6278,
      "##zenguruka": 6279,
      "##boneza": 6280,
      "france": 6281,
      "uwimana": 6282,
      "ivoire": 6283,
      "edo": 6284,
      "slovakia": 6285,
      "sunrise": 6286,
      "gaciro": 6287,
      "gasana": 6288,
      "juli": 6289,
      "urwango": 6290,
      "kinshasa": 6291,
      "fon": 6292,
      "wuba": 6293,
      "##sea": 6294,
      "bundi": 6295,
      "ibicu": 6296,
      "##lar": 6297,
      "program": 6298,
      "center": 6299,
      "akomeje": 6300,
      "amafi": 6301,
      "##tsweho": 6302,
      "##rwano": 6303,
      "irya": 6304,
      "##ciriritse": 6305,
      "abanyamerika": 6306,
      "##kubwira": 6307,
      "navuga": 6308,
      "pl": 6309,
      "##onel": 6310,
      "bwicanyi": 6311,
      "mahirwe": 6312,
      "kabila": 6313,
      "kunye": 6314,
      "##semburo": 6315,
      "dushaka": 6316,
      "##singa": 6317,
      "twebwe": 6318,
      "biti": 6319,
      "##ppe": 6320,
      "kugirana": 6321,
      "kanombe": 6322,
      "ken": 6323,
      "bishimiye": 6324,
      "watangiye": 6325,
      "kitarenze": 6326,
      "kureka": 6327,
      "yajyaga": 6328,
      "amashyamba": 6329,
      "##ghts": 6330,
      "masoko": 6331,
      "sitade": 6332,
      "public": 6333,
      "gusohora": 6334,
      "mahugurwa": 6335,
      "##gendana": 6336,
      "agapfukamunwa": 6337,
      "radiyo": 6338,
      "life": 6339,
      "ibira": 6340,
      "##ngero": 6341,
      "ikiciro": 6342,
      "ataza": 6343,
      "atangazwa": 6344,
      "zina": 6345,
      "bible": 6346,
      "##mvikanye": 6347,
      "99ubu": 6348,
      "bunyu": 6349,
      "tuda": 6350,
      "tuzaba": 6351,
      "##mirwa": 6352,
      "prote": 6353,
      "habineza": 6354,
      "money": 6355,
      "yahisemo": 6356,
      "##mwaka": 6357,
      "post": 6358,
      "ndagijimana": 6359,
      "irenge": 6360,
      "abako": 6361,
      "burimo": 6362,
      "gatuwe": 6363,
      "##byiniro": 6364,
      "ashyira": 6365,
      "cro": 6366,
      "##kemuka": 6367,
      "baseze": 6368,
      "##rwenya": 6369,
      "itsinze": 6370,
      "wagize": 6371,
      "icumu": 6372,
      "##garagajwe": 6373,
      "##riraho": 6374,
      "ikizamini": 6375,
      "antoine": 6376,
      "##geka": 6377,
      "agenga": 6378,
      "moko": 6379,
      "lon": 6380,
      "batsinze": 6381,
      "##kerezo": 6382,
      "bitangazwa": 6383,
      "kabe": 6384,
      "ibihangano": 6385,
      "mikorere": 6386,
      "700": 6387,
      "abonye": 6388,
      "ishin": 6389,
      "##bul": 6390,
      "premi": 6391,
      "damas": 6392,
      "gutya": 6393,
      "kuz": 6394,
      "kugurisha": 6395,
      "kwiya": 6396,
      "baraba": 6397,
      "##zamara": 6398,
      "##sobanutse": 6399,
      "muho": 6400,
      "##ous": 6401,
      "yasanze": 6402,
      "abasaba": 6403,
      "bukuru": 6404,
      "soko": 6405,
      "##sobanukiwe": 6406,
      "##ved": 6407,
      "burugu": 6408,
      "abinyujije": 6409,
      "250px": 6410,
      "kwiteza": 6411,
      "##koreraga": 6412,
      "##kurikiranye": 6413,
      "##garagaramo": 6414,
      "##gendanwa": 6415,
      "nina": 6416,
      "ukeneye": 6417,
      "yaza": 6418,
      "##shimire": 6419,
      "ikawa": 6420,
      "hita": 6421,
      "barya": 6422,
      "zivuga": 6423,
      "##cus": 6424,
      "##manye": 6425,
      "##nse": 6426,
      "bapfa": 6427,
      "yatsinzwe": 6428,
      "##shyuza": 6429,
      "akomoka": 6430,
      "karuranga": 6431,
      "bitwaje": 6432,
      "##mine": 6433,
      "##girango": 6434,
      "umuha": 6435,
      "##tingito": 6436,
      "menya": 6437,
      "inyoni": 6438,
      "ruhame": 6439,
      "##suzugura": 6440,
      "##ganiriza": 6441,
      "wikipe": 6442,
      "food": 6443,
      "bampo": 6444,
      "green": 6445,
      "iheruka": 6446,
      "bafana": 6447,
      "bashinjwa": 6448,
      "gusohoka": 6449,
      "george": 6450,
      "skol": 6451,
      "##garitswe": 6452,
      "ngororero": 6453,
      "amikoro": 6454,
      "##unda": 6455,
      "umukiri": 6456,
      "wagiye": 6457,
      "ubuke": 6458,
      "zawe": 6459,
      "kaban": 6460,
      "kurangira": 6461,
      "bazamu": 6462,
      "##leb": 6463,
      "habaru": 6464,
      "yongeraho": 6465,
      "perefegitura": 6466,
      "##ln": 6467,
      "rose": 6468,
      "igitambo": 6469,
      "##ffi": 6470,
      "abitabiriye": 6471,
      "##itor": 6472,
      "again": 6473,
      "dist": 6474,
      "##sengimana": 6475,
      "kumenyekana": 6476,
      "##tizo": 6477,
      "matayo": 6478,
      "zituma": 6479,
      "impeta": 6480,
      "##tt": 6481,
      "##yer": 6482,
      "##haha": 6483,
      "like": 6484,
      "##raneza": 6485,
      "yaru": 6486,
      "yashyizwe": 6487,
      "pra": 6488,
      "##boni": 6489,
      "##yika": 6490,
      "diya": 6491,
      "yitabiriye": 6492,
      "##irobi": 6493,
      "minota": 6494,
      "##sk": 6495,
      "kubakwa": 6496,
      "##sipanyo": 6497,
      "bashoboye": 6498,
      "augustin": 6499,
      "byacu": 6500,
      "about": 6501,
      "abahamya": 6502,
      "even": 6503,
      "##gamiye": 6504,
      "inyanja": 6505,
      "ibimera": 6506,
      "##ngirehe": 6507,
      "gare": 6508,
      "bemerewe": 6509,
      "nyanja": 6510,
      "arwaye": 6511,
      "##23": 6512,
      "##mad": 6513,
      "cyayo": 6514,
      "##cike": 6515,
      "urugaga": 6516,
      "baz": 6517,
      "akeneye": 6518,
      "imideli": 6519,
      "sawu": 6520,
      "hand": 6521,
      "##lls": 6522,
      "kumuha": 6523,
      "witwaga": 6524,
      "##magazine": 6525,
      "nshaka": 6526,
      "manage": 6527,
      "ifumbire": 6528,
      "##banzi": 6529,
      "##gurishwa": 6530,
      "##raf": 6531,
      "mumu": 6532,
      "##rum": 6533,
      "nairobi": 6534,
      "##mbuwe": 6535,
      "yite": 6536,
      "byabereye": 6537,
      "##komeretse": 6538,
      "imico": 6539,
      "yishe": 6540,
      "##vision": 6541,
      "igu": 6542,
      "uhu": 6543,
      "kurenza": 6544,
      "satani": 6545,
      "##rem": 6546,
      "gipimo": 6547,
      "ndimi": 6548,
      "##magaye": 6549,
      "##yenzi": 6550,
      "##higa": 6551,
      "##gwate": 6552,
      "##ronavirusi": 6553,
      "ubujura": 6554,
      "foot": 6555,
      "zikora": 6556,
      "good": 6557,
      "##uard": 6558,
      "##itsinda": 6559,
      "biranga": 6560,
      "bushake": 6561,
      "byana": 6562,
      "bitarenze": 6563,
      "##hagararira": 6564,
      "##vugira": 6565,
      "byatewe": 6566,
      "mibare": 6567,
      "obama": 6568,
      "wana": 6569,
      "after": 6570,
      "party": 6571,
      "kab": 6572,
      "##sub": 6573,
      "camp": 6574,
      "penaliti": 6575,
      "##jurire": 6576,
      "##rwanira": 6577,
      "ukundi": 6578,
      "abatishoboye": 6579,
      "irengero": 6580,
      "##bile": 6581,
      "##sigara": 6582,
      "these": 6583,
      "##puta": 6584,
      "anastase": 6585,
      "##tangazwa": 6586,
      "##vie": 6587,
      "imibanire": 6588,
      "##mc": 6589,
      "ibiba": 6590,
      "ukuboko": 6591,
      "damasc": 6592,
      "##kh": 6593,
      "##ibi": 6594,
      "##nyu": 6595,
      "##ruti": 6596,
      "gusoza": 6597,
      "##twaro": 6598,
      "kugerageza": 6599,
      "##bane": 6600,
      "york": 6601,
      "imbaga": 6602,
      "economic": 6603,
      "ubutasi": 6604,
      "imyigaragambyo": 6605,
      "##ps": 6606,
      "##muco": 6607,
      "umuhondo": 6608,
      "yere": 6609,
      "2007": 6610,
      "yavukiye": 6611,
      "##itekerereze": 6612,
      "##rengagiza": 6613,
      "ngororamu": 6614,
      "##au": 6615,
      "inkweto": 6616,
      "abaye": 6617,
      "ibirunga": 6618,
      "buyapani": 6619,
      "abanzi": 6620,
      "##torewe": 6621,
      "##hutisha": 6622,
      "73": 6623,
      "##mati": 6624,
      "guko": 6625,
      "iyica": 6626,
      "mpi": 6627,
      "##mme": 6628,
      "munezero": 6629,
      "ubukana": 6630,
      "##miza": 6631,
      "baregwa": 6632,
      "##ganzo": 6633,
      "##ndera": 6634,
      "nyabihu": 6635,
      "ikorwa": 6636,
      "yinjira": 6637,
      "##roma": 6638,
      "twavuga": 6639,
      "live": 6640,
      "##shime": 6641,
      "##mie": 6642,
      "white": 6643,
      "bakan": 6644,
      "kwinjiza": 6645,
      "##rindi": 6646,
      "ihame": 6647,
      "kugarura": 6648,
      "##masi": 6649,
      "##bonamo": 6650,
      "tatu": 6651,
      "izabera": 6652,
      "burugumes": 6653,
      "##cr": 6654,
      "gusobanukirwa": 6655,
      "ibiyaga": 6656,
      "imigani": 6657,
      "##nick": 6658,
      "shingiro": 6659,
      "asigaye": 6660,
      "uyoboye": 6661,
      "bama": 6662,
      "rwandamagazine": 6663,
      "##vel": 6664,
      "##itekereza": 6665,
      "jambo": 6666,
      "bategereje": 6667,
      "##ziza": 6668,
      "twagira": 6669,
      "kwandi": 6670,
      "udupfukamunwa": 6671,
      "bikomeje": 6672,
      "ahamya": 6673,
      "provi": 6674,
      "gitan": 6675,
      "##rch": 6676,
      "##remezo": 6677,
      "##simbuye": 6678,
      "bushingiye": 6679,
      "ant": 6680,
      "##inema": 6681,
      "ruhe": 6682,
      "bagombaga": 6683,
      "##sita": 6684,
      "indo": 6685,
      "##kecuru": 6686,
      "##hane": 6687,
      "##yamatsiko": 6688,
      "##itwaye": 6689,
      "mwami": 6690,
      "budasanzwe": 6691,
      "ashingiye": 6692,
      "sene": 6693,
      "##rembo": 6694,
      "##tifi": 6695,
      "byagaragaye": 6696,
      "##nararibonye": 6697,
      "global": 6698,
      "##jinya": 6699,
      "muki": 6700,
      "mazina": 6701,
      "bahungiye": 6702,
      "work": 6703,
      "gt": 6704,
      "wayi": 6705,
      "demo": 6706,
      "bagamije": 6707,
      "asso": 6708,
      "##cle": 6709,
      "##hererekanya": 6710,
      "bizwi": 6711,
      "##tangirwa": 6712,
      "uruhushya": 6713,
      "power": 6714,
      "ivangura": 6715,
      "inf": 6716,
      "cnlg": 6717,
      "##17": 6718,
      "##bigwi": 6719,
      "any": 6720,
      "nyamata": 6721,
      "##taye": 6722,
      "##haza": 6723,
      "hariho": 6724,
      "simba": 6725,
      "##sanganyamatsiko": 6726,
      "akaga": 6727,
      "meddy": 6728,
      "##urce": 6729,
      "umutesi": 6730,
      "##ngiro": 6731,
      "iburyo": 6732,
      "baptiste": 6733,
      "##fen": 6734,
      "impaka": 6735,
      "uburusiya": 6736,
      "amacakubiri": 6737,
      "##garagarira": 6738,
      "miriyoni": 6739,
      "mpe": 6740,
      "##hemuka": 6741,
      "clo": 6742,
      "vu": 6743,
      "##ruke": 6744,
      "uburundi": 6745,
      "nizo": 6746,
      "rube": 6747,
      "##ines": 6748,
      "##muremyi": 6749,
      "kwerekeza": 6750,
      "##itiriwe": 6751,
      "umwijima": 6752,
      "mwese": 6753,
      "9c": 6754,
      "umuganda": 6755,
      "##tiri": 6756,
      "##mbutse": 6757,
      "##kiriwe": 6758,
      "igize": 6759,
      "58": 6760,
      "##kuta": 6761,
      "tubikesha": 6762,
      "yiswe": 6763,
      "founda": 6764,
      "##genera": 6765,
      "mukerarugendo": 6766,
      "##korezi": 6767,
      "ziriya": 6768,
      "mode": 6769,
      "bitaba": 6770,
      "56": 6771,
      "66": 6772,
      "##guka": 6773,
      "##hama": 6774,
      "##shobore": 6775,
      "republic": 6776,
      "avo": 6777,
      "##vile": 6778,
      "willia": 6779,
      "well": 6780,
      "kwihangana": 6781,
      "amakoperative": 6782,
      "mozambique": 6783,
      "##mpaye": 6784,
      "bungana": 6785,
      "##kiniye": 6786,
      "grace": 6787,
      "##24": 6788,
      "kigeze": 6789,
      "##riyeho": 6790,
      "wifuza": 6791,
      "burugumesitiri": 6792,
      "##phonse": 6793,
      "muhungu": 6794,
      "##rubozo": 6795,
      "umusoro": 6796,
      "gushishikariza": 6797,
      "bishimira": 6798,
      "young": 6799,
      "aramubwira": 6800,
      "twumva": 6801,
      "##gijwe": 6802,
      "war": 6803,
      "##iteguro": 6804,
      "bou": 6805,
      "ryayo": 6806,
      "koronavirusi": 6807,
      "arc": 6808,
      "asimbuye": 6809,
      "eti": 6810,
      "##kiya": 6811,
      "hasigaye": 6812,
      "ruge": 6813,
      "##herereza": 6814,
      "edouard": 6815,
      "foundation": 6816,
      "wit": 6817,
      "zuba": 6818,
      "kevin": 6819,
      "ayisumbuye": 6820,
      "iruhande": 6821,
      "64": 6822,
      "##gon": 6823,
      "rab": 6824,
      "faustin": 6825,
      "akina": 6826,
      "bumenyi": 6827,
      "profe": 6828,
      "bashyira": 6829,
      "ukuba": 6830,
      "dar": 6831,
      "99umu": 6832,
      "roya": 6833,
      "igitutu": 6834,
      "##et": 6835,
      "kiro": 6836,
      "irindi": 6837,
      "##kenerwa": 6838,
      "##teganya": 6839,
      "kim": 6840,
      "ito": 6841,
      "barangije": 6842,
      "uhuza": 6843,
      "bacye": 6844,
      "big": 6845,
      "bibli": 6846,
      "##genderaho": 6847,
      "emp": 6848,
      "wanyu": 6849,
      "yerekanye": 6850,
      "ikina": 6851,
      "chall": 6852,
      "akurikiranyweho": 6853,
      "##im": 6854,
      "##higwa": 6855,
      "cyatumye": 6856,
      "isiga": 6857,
      "##garijwe": 6858,
      "aheruka": 6859,
      "fr": 6860,
      "##giritse": 6861,
      "gukuraho": 6862,
      "bifitanye": 6863,
      "tur": 6864,
      "ikaza": 6865,
      "kugeraho": 6866,
      "yakunze": 6867,
      "domini": 6868,
      "kujyana": 6869,
      "##randa": 6870,
      "ahora": 6871,
      "##mvikane": 6872,
      "muge": 6873,
      "##batsi": 6874,
      "zishinzwe": 6875,
      "lau": 6876,
      "##geya": 6877,
      "ipa": 6878,
      "ugera": 6879,
      "kuro": 6880,
      "##bwiwe": 6881,
      "ntizi": 6882,
      "ukumva": 6883,
      "bakekwaho": 6884,
      "ato": 6885,
      "##lita": 6886,
      "guhitamo": 6887,
      "vis": 6888,
      "ran": 6889,
      "rbc": 6890,
      "##gerere": 6891,
      "##bero": 6892,
      "##hohotera": 6893,
      "##geragere": 6894,
      "perezi": 6895,
      "abigishwa": 6896,
      "indangagaciro": 6897,
      "##buja": 6898,
      "imvaho": 6899,
      "##giramo": 6900,
      "imihigo": 6901,
      "##gejejwe": 6902,
      "amasegonda": 6903,
      "##shen": 6904,
      "football": 6905,
      "bakin": 6906,
      "ubwigenge": 6907,
      "##tandaro": 6908,
      "##ozo": 6909,
      "amahame": 6910,
      "nonese": 6911,
      "gutakaza": 6912,
      "icyuho": 6913,
      "85": 6914,
      "umugaba": 6915,
      "inziti": 6916,
      "##hato": 6917,
      "ubusu": 6918,
      "ibikomoka": 6919,
      "##beraga": 6920,
      "kwamamaza": 6921,
      "ineza": 6922,
      "ibitangazamakuru": 6923,
      "##zanywe": 6924,
      "sankara": 6925,
      "amenyo": 6926,
      "henshi": 6927,
      "hashingiwe": 6928,
      "chel": 6929,
      "cami": 6930,
      "cyera": 6931,
      "##baro": 6932,
      "gisi": 6933,
      "##kwirakwizwa": 6934,
      "bamporiki": 6935,
      "yam": 6936,
      "icyamamare": 6937,
      "##yandikisha": 6938,
      "gutura": 6939,
      "wahawe": 6940,
      "catego": 6941,
      "yaramu": 6942,
      "serivise": 6943,
      "abatanga": 6944,
      "umusaza": 6945,
      "hy": 6946,
      "##pt": 6947,
      "##remwa": 6948,
      "gushimira": 6949,
      "abamotari": 6950,
      "##nika": 6951,
      "ihari": 6952,
      "qa": 6953,
      "umugongo": 6954,
      "anti": 6955,
      "amande": 6956,
      "78": 6957,
      "abahagarariye": 6958,
      "igisa": 6959,
      "isaac": 6960,
      "ugeze": 6961,
      "umuhe": 6962,
      "umuhoza": 6963,
      "cyanditse": 6964,
      "##kuruza": 6965,
      "gusambanya": 6966,
      "experi": 6967,
      "buso": 6968,
      "mijyi": 6969,
      "jeannette": 6970,
      "gukorerwa": 6971,
      "##deni": 6972,
      "umuvunyi": 6973,
      "basirikare": 6974,
      "bashyize": 6975,
      "gikundiro": 6976,
      "itangaza": 6977,
      "umwanzi": 6978,
      "kuvugurura": 6979,
      "##hangani": 6980,
      "adver": 6981,
      "##mple": 6982,
      "##guriye": 6983,
      "popu": 6984,
      "##ronko": 6985,
      "ibinyabuzima": 6986,
      "##mugabo": 6987,
      "##ranywe": 6988,
      "kutagira": 6989,
      "##yinya": 6990,
      "##weri": 6991,
      "gukangurira": 6992,
      "abakandida": 6993,
      "##dom": 6994,
      "bavugaga": 6995,
      "##sipanyole": 6996,
      "itangira": 6997,
      "gupima": 6998,
      "##itezwe": 6999,
      "kalisa": 7000,
      "ibirwa": 7001,
      "rema": 7002,
      "byibura": 7003,
      "igenzura": 7004,
      "uzajya": 7005,
      "itangwa": 7006,
      "bwaba": 7007,
      "##itange": 7008,
      "bagiranye": 7009,
      "ukabona": 7010,
      "igare": 7011,
      "nkora": 7012,
      "bakwi": 7013,
      "##garamu": 7014,
      "##jiji": 7015,
      "kwanga": 7016,
      "startimes": 7017,
      "iyicarubozo": 7018,
      "ikwiye": 7019,
      "gukundana": 7020,
      "jack": 7021,
      "idu": 7022,
      "respon": 7023,
      "##hiti": 7024,
      "cyawe": 7025,
      "bataza": 7026,
      "ubutunzi": 7027,
      "bukangurambaga": 7028,
      "aregwa": 7029,
      "hakurikijwe": 7030,
      "##rahi": 7031,
      "bafatiwe": 7032,
      "yashimye": 7033,
      "##biye": 7034,
      "nawo": 7035,
      "amarangamutima": 7036,
      "##mubwira": 7037,
      "##geri": 7038,
      "support": 7039,
      "gutangwa": 7040,
      "##somye": 7041,
      "arangije": 7042,
      "inspe": 7043,
      "ntama": 7044,
      "tri": 7045,
      "##cca": 7046,
      "umwanda": 7047,
      "information": 7048,
      "challenge": 7049,
      "ugi": 7050,
      "bateye": 7051,
      "abagororwa": 7052,
      "urusobe": 7053,
      "abayisilamu": 7054,
      "##banji": 7055,
      "kali": 7056,
      "ukabije": 7057,
      "##uru": 7058,
      "majwi": 7059,
      "bakagira": 7060,
      "##riste": 7061,
      "rwagasana": 7062,
      "marines": 7063,
      "##dji": 7064,
      "kuran": 7065,
      "bareba": 7066,
      "umwo": 7067,
      "cyuba": 7068,
      "kabari": 7069,
      "67": 7070,
      "##bita": 7071,
      "ukina": 7072,
      "umukoresha": 7073,
      "abahe": 7074,
      "news": 7075,
      "kwitabwaho": 7076,
      "byumba": 7077,
      "##sto": 7078,
      "##rara": 7079,
      "##yumu": 7080,
      "##nis": 7081,
      "##rinze": 7082,
      "nzaboni": 7083,
      "##gavu": 7084,
      "##rena": 7085,
      "##hanyuma": 7086,
      "fatizo": 7087,
      "utwo": 7088,
      "##seka": 7089,
      "akagira": 7090,
      "juven": 7091,
      "binyamakuru": 7092,
      "##rwi": 7093,
      "amatorero": 7094,
      "kiyaga": 7095,
      "##nguwe": 7096,
      "church": 7097,
      "myan": 7098,
      "##ler": 7099,
      "nimugoroba": 7100,
      "mwanzuro": 7101,
      "perezidan": 7102,
      "ntitwa": 7103,
      "ministeri": 7104,
      "melo": 7105,
      "kubuso": 7106,
      "##mz": 7107,
      "##tiye": 7108,
      "kanwa": 7109,
      "##hagaritse": 7110,
      "azira": 7111,
      "ukwizera": 7112,
      "ashimira": 7113,
      "umushumba": 7114,
      "abarezi": 7115,
      "bitwaye": 7116,
      "72": 7117,
      "dona": 7118,
      "gitekerezo": 7119,
      "##cara": 7120,
      "kambanda": 7121,
      "musaruro": 7122,
      "mushikiwabo": 7123,
      "##sungane": 7124,
      "ihita": 7125,
      "ubuso": 7126,
      "##tange": 7127,
      "ili": 7128,
      "##kongera": 7129,
      "atigeze": 7130,
      "yannick": 7131,
      "##hangan": 7132,
      "##kinwa": 7133,
      "##cuza": 7134,
      "rea": 7135,
      "banze": 7136,
      "agaruka": 7137,
      "chelsea": 7138,
      "where": 7139,
      "abasaga": 7140,
      "ibirayi": 7141,
      "rigena": 7142,
      "ikaze": 7143,
      "ruti": 7144,
      "babwiye": 7145,
      "dutandukanye": 7146,
      "bruce": 7147,
      "##cd": 7148,
      "##banki": 7149,
      "imicungire": 7150,
      "espa": 7151,
      "yakobo": 7152,
      "bukabije": 7153,
      "cur": 7154,
      "isha": 7155,
      "##itwi": 7156,
      "yabyo": 7157,
      "##ruza": 7158,
      "uburi": 7159,
      "##hine": 7160,
      "##subizwa": 7161,
      "urwandiko": 7162,
      "uregwa": 7163,
      "##rpong": 7164,
      "security": 7165,
      "yaya": 7166,
      "##ced": 7167,
      "rela": 7168,
      "inzoka": 7169,
      "##senye": 7170,
      "kigaragaza": 7171,
      "villa": 7172,
      "wat": 7173,
      "59": 7174,
      "yamenyekanye": 7175,
      "##gunga": 7176,
      "##tiona": 7177,
      "mvugo": 7178,
      "##mmy": 7179,
      "##dehe": 7180,
      "yibukije": 7181,
      "pac": 7182,
      "bangana": 7183,
      "buntu": 7184,
      "fina": 7185,
      "##mable": 7186,
      "gukurikiza": 7187,
      "cyanjye": 7188,
      "120": 7189,
      "roma": 7190,
      "##cumu": 7191,
      "birumvikana": 7192,
      "isuzuma": 7193,
      "##weli": 7194,
      "abivuga": 7195,
      "##hammed": 7196,
      "##rekejwe": 7197,
      "yazo": 7198,
      "##pis": 7199,
      "murenzi": 7200,
      "##shyurira": 7201,
      "nganda": 7202,
      "hashobora": 7203,
      "imishahara": 7204,
      "##itwaza": 7205,
      "iburanisha": 7206,
      "abatari": 7207,
      "gatete": 7208,
      "biganjemo": 7209,
      "##aniye": 7210,
      "##geneye": 7211,
      "mul": 7212,
      "kwitaba": 7213,
      "rin": 7214,
      "##shyingi": 7215,
      "biyi": 7216,
      "turebe": 7217,
      "impyiko": 7218,
      "zitari": 7219,
      "ahaza": 7220,
      "nyamukuru": 7221,
      "rukuta": 7222,
      "nd": 7223,
      "##wemo": 7224,
      "##teje": 7225,
      "##vate": 7226,
      "husse": 7227,
      "iterwa": 7228,
      "shyira": 7229,
      "service": 7230,
      "ababwira": 7231,
      "kaza": 7232,
      "##oniya": 7233,
      "kina": 7234,
      "##dr": 7235,
      "##yonga": 7236,
      "ibite": 7237,
      "bwara": 7238,
      "##gurutse": 7239,
      "last": 7240,
      "initi": 7241,
      "kigiye": 7242,
      "safi": 7243,
      "##tumvi": 7244,
      "##form": 7245,
      "bernard": 7246,
      "ose": 7247,
      "##baze": 7248,
      "urun": 7249,
      "byerekana": 7250,
      "gushize": 7251,
      "##dence": 7252,
      "##sesengu": 7253,
      "umuyaga": 7254,
      "umutoni": 7255,
      "ubunararibonye": 7256,
      "barwaye": 7257,
      "##sengera": 7258,
      "biciwe": 7259,
      "mariya": 7260,
      "aborozi": 7261,
      "diyo": 7262,
      "kabgayi": 7263,
      "umugaragu": 7264,
      "nations": 7265,
      "twabonye": 7266,
      "joy": 7267,
      "baganira": 7268,
      "imfungwa": 7269,
      "##jeriya": 7270,
      "##sohoye": 7271,
      "foto": 7272,
      "gukuramo": 7273,
      "ukinira": 7274,
      "##dier": 7275,
      "wavu": 7276,
      "ishingamategeko": 7277,
      "ala": 7278,
      "apo": 7279,
      "bahisemo": 7280,
      "bafatwa": 7281,
      "rida": 7282,
      "##rereye": 7283,
      "##menyerewe": 7284,
      "##rindwa": 7285,
      "libya": 7286,
      "kiriziya": 7287,
      "##merwa": 7288,
      "imfura": 7289,
      "##mbure": 7290,
      "austra": 7291,
      "publique": 7292,
      "rirambye": 7293,
      "music": 7294,
      "associa": 7295,
      "##pha": 7296,
      "inkingi": 7297,
      "ubugingo": 7298,
      "kwikinisha": 7299,
      "##riyemo": 7300,
      "kumurika": 7301,
      "ubwenegihugu": 7302,
      "##14": 7303,
      "isiganwa": 7304,
      "barebe": 7305,
      "##senateri": 7306,
      "amasasu": 7307,
      "organiza": 7308,
      "rimaze": 7309,
      "yarabi": 7310,
      "joe": 7311,
      "icyicaro": 7312,
      "ukoresha": 7313,
      "##hamu": 7314,
      "##tire": 7315,
      "rugero": 7316,
      "ikiba": 7317,
      "ikimera": 7318,
      "gasha": 7319,
      "nduhu": 7320,
      "yakoranye": 7321,
      "community": 7322,
      "mako": 7323,
      "master": 7324,
      "##sanganywe": 7325,
      "cle": 7326,
      "ntoki": 7327,
      "ois": 7328,
      "##yij": 7329,
      "mavu": 7330,
      "##gizemo": 7331,
      "##kurikiyeho": 7332,
      "ihene": 7333,
      "blica": 7334,
      "##rukanye": 7335,
      "##duku": 7336,
      "sec": 7337,
      "##pora": 7338,
      "##gendaga": 7339,
      "##shimangiye": 7340,
      "##anira": 7341,
      "mugambi": 7342,
      "bamenya": 7343,
      "##rekeranye": 7344,
      "umurage": 7345,
      "##tangarije": 7346,
      "fabri": 7347,
      "adverb": 7348,
      "kha": 7349,
      "99in": 7350,
      "child": 7351,
      "aimable": 7352,
      "bn": 7353,
      "boy": 7354,
      "isaga": 7355,
      "auto": 7356,
      "yitwaje": 7357,
      "##sire": 7358,
      "##imi": 7359,
      "abakristu": 7360,
      "wavuze": 7361,
      "##inyuka": 7362,
      "ishingiro": 7363,
      "tre": 7364,
      "##mate": 7365,
      "##hungiye": 7366,
      "##sanyi": 7367,
      "ndashaka": 7368,
      "##ans": 7369,
      "##biza": 7370,
      "kuy": 7371,
      "##muzi": 7372,
      "rdf": 7373,
      "##ice": 7374,
      "2004": 7375,
      "gituma": 7376,
      "gituruki": 7377,
      "##giriza": 7378,
      "ubudehe": 7379,
      "michel": 7380,
      "erega": 7381,
      "akumva": 7382,
      "while": 7383,
      "abakorera": 7384,
      "##enze": 7385,
      "inkongi": 7386,
      "##rohera": 7387,
      "ingero": 7388,
      "inyongera": 7389,
      "yiyemeje": 7390,
      "sarpong": 7391,
      "acade": 7392,
      "barcelona": 7393,
      "eph": 7394,
      "muku": 7395,
      "akabona": 7396,
      "istan": 7397,
      "adafite": 7398,
      "yakuye": 7399,
      "mahia": 7400,
      "butaliyani": 7401,
      "esther": 7402,
      "porogaramu": 7403,
      "ububi": 7404,
      "gafite": 7405,
      "kunyereza": 7406,
      "azamu": 7407,
      "ibuka": 7408,
      "yajya": 7409,
      "rumaze": 7410,
      "##ngere": 7411,
      "##mbona": 7412,
      "##itora": 7413,
      "##gererezo": 7414,
      "nagiye": 7415,
      "##wanye": 7416,
      "##teguye": 7417,
      "wakora": 7418,
      "ruto": 7419,
      "##hutirwa": 7420,
      "premier": 7421,
      "bakayi": 7422,
      "such": 7423,
      "umusifuzi": 7424,
      "##shuka": 7425,
      "##garikwa": 7426,
      "guso": 7427,
      "abacamanza": 7428,
      "##rande": 7429,
      "see": 7430,
      "ubwisanzure": 7431,
      "istanbul": 7432,
      "##cc": 7433,
      "##turuka": 7434,
      "into": 7435,
      "##logi": 7436,
      "##bai": 7437,
      "##wani": 7438,
      "ibirego": 7439,
      "mauri": 7440,
      "zaburi": 7441,
      "##tegerejwe": 7442,
      "hope": 7443,
      "tanu": 7444,
      "baruwa": 7445,
      "##genzo": 7446,
      "kugirira": 7447,
      "nsengimana": 7448,
      "##meranya": 7449,
      "##sal": 7450,
      "compe": 7451,
      "litiro": 7452,
      "##mariya": 7453,
      "##tis": 7454,
      "##kers": 7455,
      "##papuro": 7456,
      "major": 7457,
      "tugeze": 7458,
      "yen": 7459,
      "##bahiriza": 7460,
      "##roni": 7461,
      "mageragere": 7462,
      "##shyimbo": 7463,
      "yacyo": 7464,
      "bukwe": 7465,
      "##hinduzi": 7466,
      "cyesipanyole": 7467,
      "isukari": 7468,
      "yasuye": 7469,
      "mayo": 7470,
      "##nguka": 7471,
      "ubutabazi": 7472,
      "keretse": 7473,
      "##tezwa": 7474,
      "##siwe": 7475,
      "kariya": 7476,
      "ngororamubiri": 7477,
      "yashinzwe": 7478,
      "##rohereza": 7479,
      "kopi": 7480,
      "abahoze": 7481,
      "##gendu": 7482,
      "beca": 7483,
      "gikongo": 7484,
      "akayi": 7485,
      "source": 7486,
      "utubari": 7487,
      "category": 7488,
      "fln": 7489,
      "ibaye": 7490,
      "##hire": 7491,
      "covid19": 7492,
      "##yumvise": 7493,
      "seba": 7494,
      "bitaramo": 7495,
      "ibumoso": 7496,
      "##tsindira": 7497,
      "yatangije": 7498,
      "ibikomere": 7499,
      "seka": 7500,
      "teta": 7501,
      "non": 7502,
      "##rye": 7503,
      "bushobora": 7504,
      "rukora": 7505,
      "asabwa": 7506,
      "wera": 7507,
      "##shyikirwa": 7508,
      "##byita": 7509,
      "agen": 7510,
      "##64": 7511,
      "ririmo": 7512,
      "mohammed": 7513,
      "bwagaragaje": 7514,
      "pays": 7515,
      "##byiza": 7516,
      "director": 7517,
      "wasangaga": 7518,
      "shu": 7519,
      "##mene": 7520,
      "rugira": 7521,
      "##dou": 7522,
      "twose": 7523,
      "australia": 7524,
      "bireba": 7525,
      "gaca": 7526,
      "##12": 7527,
      "kigega": 7528,
      "zigomba": 7529,
      "yemerewe": 7530,
      "ibikorwaremezo": 7531,
      "birenze": 7532,
      "yishimira": 7533,
      "bakabona": 7534,
      "babashe": 7535,
      "##vention": 7536,
      "vision": 7537,
      "bashatse": 7538,
      "##bujije": 7539,
      "##gereki": 7540,
      "ibyakozwe": 7541,
      "##llah": 7542,
      "murumuna": 7543,
      "##konje": 7544,
      "ifaranga": 7545,
      "riti": 7546,
      "rwu": 7547,
      "##byin": 7548,
      "ahi": 7549,
      "ikurikira": 7550,
      "##buhamya": 7551,
      "##kumira": 7552,
      "##sirwa": 7553,
      "##sul": 7554,
      "ntebe": 7555,
      "##shwana": 7556,
      "magendu": 7557,
      "gica": 7558,
      "gahana": 7559,
      "imidugudu": 7560,
      "##jyamo": 7561,
      "twasanze": 7562,
      "byerekeye": 7563,
      "zanjye": 7564,
      "##pasiteri": 7565,
      "plus": 7566,
      "bigisha": 7567,
      "gilbert": 7568,
      "##menta": 7569,
      "bitangazamakuru": 7570,
      "ugenda": 7571,
      "##pfi": 7572,
      "##biro": 7573,
      "##yumvisha": 7574,
      "ngaho": 7575,
      "##ate": 7576,
      "##yiti": 7577,
      "##dra": 7578,
      "##manu": 7579,
      "##hurura": 7580,
      "##ganura": 7581,
      "##sangwa": 7582,
      "kwirukana": 7583,
      "##ville": 7584,
      "##kwaya": 7585,
      "##cururiza": 7586,
      "nyamaswa": 7587,
      "##lixte": 7588,
      "bikurikira": 7589,
      "bakoraga": 7590,
      "muzima": 7591,
      "##ryohe": 7592,
      "##kubitwa": 7593,
      "muma": 7594,
      "ababo": 7595,
      "##kanywe": 7596,
      "ukugira": 7597,
      "mobile": 7598,
      "under": 7599,
      "hassan": 7600,
      "zitwara": 7601,
      "bwami": 7602,
      "ue": 7603,
      "umushoferi": 7604,
      "bure": 7605,
      "gake": 7606,
      "colo": 7607,
      "mpinduka": 7608,
      "eco": 7609,
      "##wing": 7610,
      "rutare": 7611,
      "tuna": 7612,
      "##hangange": 7613,
      "hussein": 7614,
      "hagaragaye": 7615,
      "vian": 7616,
      "mukaru": 7617,
      "mudu": 7618,
      "##limana": 7619,
      "##tha": 7620,
      "barenze": 7621,
      "watsinze": 7622,
      "gihari": 7623,
      "igiswahili": 7624,
      "##esti": 7625,
      "kumenyekanisha": 7626,
      "amwi": 7627,
      "ububa": 7628,
      "##kekwa": 7629,
      "migi": 7630,
      "bakazi": 7631,
      "umusozi": 7632,
      "biyemeje": 7633,
      "barindwi": 7634,
      "project": 7635,
      "ryu": 7636,
      "bahoze": 7637,
      "bicwa": 7638,
      "zisanzwe": 7639,
      "gutunga": 7640,
      "shami": 7641,
      "centraf": 7642,
      "fabrice": 7643,
      "##ww": 7644,
      "izakomeza": 7645,
      "##13": 7646,
      "##ramba": 7647,
      "kugo": 7648,
      "##tike": 7649,
      "99ama": 7650,
      "timo": 7651,
      "iyitwa": 7652,
      "crea": 7653,
      "eme": 7654,
      "##15": 7655,
      "gusobanura": 7656,
      "wamamaye": 7657,
      "ruvuga": 7658,
      "yun": 7659,
      "##lk": 7660,
      "##inda": 7661,
      "##zerere": 7662,
      "abagi": 7663,
      "##hemba": 7664,
      "##subize": 7665,
      "mugitondo": 7666,
      "anthere": 7667,
      "ugizwe": 7668,
      "##cifi": 7669,
      "person": 7670,
      "egiputa": 7671,
      "haru": 7672,
      "##shaho": 7673,
      "messi": 7674,
      "autho": 7675,
      "##reat": 7676,
      "##rwanye": 7677,
      "##ririmbyi": 7678,
      "##ak": 7679,
      "urusengero": 7680,
      "rights": 7681,
      "ubwikorezi": 7682,
      "gore": 7683,
      "bibaho": 7684,
      "##shyo": 7685,
      "amaho": 7686,
      "prima": 7687,
      "imvune": 7688,
      "ole": 7689,
      "rupfu": 7690,
      "washing": 7691,
      "amaf": 7692,
      "##kundan": 7693,
      "numvaga": 7694,
      "##shyikirijwe": 7695,
      "special": 7696,
      "##cture": 7697,
      "babuze": 7698,
      "hatandukanye": 7699,
      "barasaba": 7700,
      "kwangiza": 7701,
      "##yumvamo": 7702,
      "giherereye": 7703,
      "diplo": 7704,
      "supe": 7705,
      "nduhungirehe": 7706,
      "##18": 7707,
      "kingana": 7708,
      "only": 7709,
      "bajyaga": 7710,
      "##kiranuka": 7711,
      "ashimangira": 7712,
      "eli": 7713,
      "now": 7714,
      "bworoshye": 7715,
      "##gamira": 7716,
      "##sezi": 7717,
      "##ports": 7718,
      "yaraye": 7719,
      "##kubiswe": 7720,
      "##ika": 7721,
      "naje": 7722,
      "##tiya": 7723,
      "##cip": 7724,
      "entre": 7725,
      "ernest": 7726,
      "experience": 7727,
      "##rambo": 7728,
      "yashatse": 7729,
      "togo": 7730,
      "##kingirizo": 7731,
      "kizi": 7732,
      "##hie": 7733,
      "twamu": 7734,
      "umuhanzikazi": 7735,
      "##rondoro": 7736,
      "prince": 7737,
      "fer": 7738,
      "ngamije": 7739,
      "ubujurire": 7740,
      "dukwiye": 7741,
      "ubwato": 7742,
      "bazize": 7743,
      "twan": 7744,
      "##ption": 7745,
      "abakoze": 7746,
      "##yuza": 7747,
      "havugwa": 7748,
      "kwishimira": 7749,
      "##lam": 7750,
      "baro": 7751,
      "way": 7752,
      "##dende": 7753,
      "rwanyu": 7754,
      "amenye": 7755,
      "arusha": 7756,
      "asubiza": 7757,
      "opera": 7758,
      "gushora": 7759,
      "butera": 7760,
      "alge": 7761,
      "##rg": 7762,
      "##ining": 7763,
      "yabonaga": 7764,
      "##kiranya": 7765,
      "hakenewe": 7766,
      "##vanye": 7767,
      "##voma": 7768,
      "yabivuze": 7769,
      "yagerageje": 7770,
      "duto": 7771,
      "##bonana": 7772,
      "ubusambanyi": 7773,
      "kubohora": 7774,
      "batera": 7775,
      "##muni": 7776,
      "##rungu": 7777,
      "amashyaka": 7778,
      "giciro": 7779,
      "ubwisungane": 7780,
      "##koreshereze": 7781,
      "ikana": 7782,
      "##bune": 7783,
      "cyaro": 7784,
      "umwalimu": 7785,
      "##shyikirano": 7786,
      "74": 7787,
      "bikiri": 7788,
      "cyabereye": 7789,
      "ntiru": 7790,
      "commit": 7791,
      "##sted": 7792,
      "##rure": 7793,
      "byibuze": 7794,
      "itwara": 7795,
      "yabyaye": 7796,
      "##seneza": 7797,
      "ubuhinduzi": 7798,
      "gir": 7799,
      "urundi": 7800,
      "##dore": 7801,
      "62": 7802,
      "babanza": 7803,
      "birinda": 7804,
      "guhamagara": 7805,
      "nkengero": 7806,
      "ntiyigeze": 7807,
      "##pro": 7808,
      "ins": 7809,
      "##waneza": 7810,
      "ral": 7811,
      "ashize": 7812,
      "ihuza": 7813,
      "uhoraho": 7814,
      "##pimisha": 7815,
      "moya": 7816,
      "bitoroshye": 7817,
      "tugira": 7818,
      "##cuku": 7819,
      "top": 7820,
      "azize": 7821,
      "ntekereza": 7822,
      "distric": 7823,
      "##sangiye": 7824,
      "##itonde": 7825,
      "##kundira": 7826,
      "##kwita": 7827,
      "##ziga": 7828,
      "##kumwe": 7829,
      "mai": 7830,
      "dusanga": 7831,
      "agahita": 7832,
      "die": 7833,
      "confederation": 7834,
      "##yetina": 7835,
      "umutingito": 7836,
      "hagu": 7837,
      "gisozi": 7838,
      "kinyejana": 7839,
      "utazi": 7840,
      "##tandukanya": 7841,
      "##yetinamu": 7842,
      "phili": 7843,
      "ababu": 7844,
      "wakwi": 7845,
      "ubuki": 7846,
      "mas": 7847,
      "##jyane": 7848,
      "francois": 7849,
      "mor": 7850,
      "nkun": 7851,
      "ibito": 7852,
      "cou": 7853,
      "twagiye": 7854,
      "peteroli": 7855,
      "djabel": 7856,
      "##rant": 7857,
      "##cell": 7858,
      "##twali": 7859,
      "atabi": 7860,
      "insengero": 7861,
      "ruhare": 7862,
      "most": 7863,
      "##ix": 7864,
      "karama": 7865,
      "kanda": 7866,
      "##vili": 7867,
      "ihungabana": 7868,
      "njyana": 7869,
      "mico": 7870,
      "impuhwe": 7871,
      "##hangayikishije": 7872,
      "omar": 7873,
      "ton": 7874,
      "bazwi": 7875,
      "##bundi": 7876,
      "ubuhanzi": 7877,
      "kwirukanwa": 7878,
      "##koraho": 7879,
      "uwase": 7880,
      "##yambaje": 7881,
      "##dge": 7882,
      "imani": 7883,
      "ubuyapani": 7884,
      "zigamije": 7885,
      "##cura": 7886,
      "ubwanditsi": 7887,
      "ifungwa": 7888,
      "##ila": 7889,
      "mutoza": 7890,
      "umuhuza": 7891,
      "abashakashatsi": 7892,
      "##yutse": 7893,
      "##bete": 7894,
      "##hindurwa": 7895,
      "ihabwa": 7896,
      "follo": 7897,
      "intangiriro": 7898,
      "main": 7899,
      "##nguru": 7900,
      "dalla": 7901,
      "##koza": 7902,
      "##gugu": 7903,
      "bukene": 7904,
      "##turage": 7905,
      "##meri": 7906,
      "invest": 7907,
      "bijya": 7908,
      "amagi": 7909,
      "##ngerera": 7910,
      "umweru": 7911,
      "indanga": 7912,
      "smart": 7913,
      "##rimbye": 7914,
      "kibe": 7915,
      "##rikira": 7916,
      "mutungo": 7917,
      "iherutse": 7918,
      "##tural": 7919,
      "kame": 7920,
      "tujya": 7921,
      "##shimirwa": 7922,
      "aux": 7923,
      "inzovu": 7924,
      "awards": 7925,
      "iteye": 7926,
      "mbonera": 7927,
      "##dation": 7928,
      "##bohora": 7929,
      "##shakiye": 7930,
      "icyuma": 7931,
      "reso": 7932,
      "##pfura": 7933,
      "avuka": 7934,
      "barwayi": 7935,
      "babayeho": 7936,
      "kwima": 7937,
      "##numz": 7938,
      "##kubye": 7939,
      "corona": 7940,
      "many": 7941,
      "huba": 7942,
      "initia": 7943,
      "guhitana": 7944,
      "rigira": 7945,
      "jay": 7946,
      "zone": 7947,
      "mufite": 7948,
      "abagaragu": 7949,
      "abakristo": 7950,
      "##sisi": 7951,
      "##via": 7952,
      "mwiseneza": 7953,
      "##babaro": 7954,
      "gukomera": 7955,
      "hen": 7956,
      "yagiriye": 7957,
      "cyahoze": 7958,
      "take": 7959,
      "slowa": 7960,
      "inspector": 7961,
      "ephrem": 7962,
      "ugamije": 7963,
      "##tita": 7964,
      "##zefu": 7965,
      "amate": 7966,
      "niki": 7967,
      "##hishu": 7968,
      "film": 7969,
      "cli": 7970,
      "gerard": 7971,
      "ado": 7972,
      "basabwe": 7973,
      "janvier": 7974,
      "abakiliya": 7975,
      "ipfu": 7976,
      "bag": 7977,
      "bahora": 7978,
      "abakene": 7979,
      "aririmba": 7980,
      "magingo": 7981,
      "##jagari": 7982,
      "uburakari": 7983,
      "nyabugogo": 7984,
      "itora": 7985,
      "##kenga": 7986,
      "ruban": 7987,
      "yizeye": 7988,
      "mukazi": 7989,
      "buvuzi": 7990,
      "95": 7991,
      "bashi": 7992,
      "abarabu": 7993,
      "waha": 7994,
      "uruhande": 7995,
      "cyatangaje": 7996,
      "bitero": 7997,
      "byiringiro": 7998,
      "##tangiriye": 7999,
      "abdul": 8000,
      "umuririmbyi": 8001,
      "misa": 8002,
      "sub": 8003,
      "access": 8004,
      "##wanga": 8005,
      "socie": 8006,
      "##kishije": 8007,
      "sema": 8008,
      "buriri": 8009,
      "baturuka": 8010,
      "ibyabo": 8011,
      "inzuki": 8012,
      "bac": 8013,
      "gusenya": 8014,
      "buhu": 8015,
      "##hizi": 8016,
      "ntaza": 8017,
      "imigambi": 8018,
      "##pfumu": 8019,
      "##tangire": 8020,
      "##gutabara": 8021,
      "kubya": 8022,
      "abajyanama": 8023,
      "mee": 8024,
      "mwalimu": 8025,
      "batewe": 8026,
      "iva": 8027,
      "bihari": 8028,
      "urusa": 8029,
      "agakoko": 8030,
      "udukoko": 8031,
      "gusangira": 8032,
      "siyan": 8033,
      "mbaraga": 8034,
      "batekereza": 8035,
      "senda": 8036,
      "izamuka": 8037,
      "84": 8038,
      "##yitse": 8039,
      "kima": 8040,
      "##komereka": 8041,
      "rwasa": 8042,
      "abiha": 8043,
      "bitemewe": 8044,
      "icyifuzo": 8045,
      "akekwaho": 8046,
      "76": 8047,
      "##ngutse": 8048,
      "##mugayo": 8049,
      "ziterwa": 8050,
      "dji": 8051,
      "gukinira": 8052,
      "ndayisenga": 8053,
      "##uti": 8054,
      "##dro": 8055,
      "yakira": 8056,
      "ntarama": 8057,
      "muhadji": 8058,
      "byemewe": 8059,
      "agize": 8060,
      "bafatanyije": 8061,
      "batinya": 8062,
      "umujinya": 8063,
      "bugamije": 8064,
      "maka": 8065,
      "urugwiro": 8066,
      "##ors": 8067,
      "##rageza": 8068,
      "##byibu": 8069,
      "utugari": 8070,
      "washington": 8071,
      "##kamaro": 8072,
      "abato": 8073,
      "##bereka": 8074,
      "##fitemo": 8075,
      "##meni": 8076,
      "uburebure": 8077,
      "##rora": 8078,
      "##garukira": 8079,
      "imyanda": 8080,
      "brazi": 8081,
      "bisobanura": 8082,
      "##heba": 8083,
      "##mbiya": 8084,
      "##subire": 8085,
      "lib": 8086,
      "exc": 8087,
      "aramutse": 8088,
      "agriculture": 8089,
      "kenyatta": 8090,
      "china": 8091,
      "##mpundu": 8092,
      "##nganizi": 8093,
      "##zemo": 8094,
      "buil": 8095,
      "common": 8096,
      "##burayo": 8097,
      "ndabi": 8098,
      "##rume": 8099,
      "ubwayo": 8100,
      "should": 8101,
      "vianney": 8102,
      "akinira": 8103,
      "kwiyamamariza": 8104,
      "gihembwe": 8105,
      "aragira": 8106,
      "afungiye": 8107,
      "zibishinzwe": 8108,
      "senegal": 8109,
      "rra": 8110,
      "kuzuza": 8111,
      "macye": 8112,
      "uruza": 8113,
      "cyatsinzwe": 8114,
      "##korwaga": 8115,
      "##fili": 8116,
      "yumvise": 8117,
      "rwigema": 8118,
      "platnumz": 8119,
      "ikub": 8120,
      "umugenzuzi": 8121,
      "yarimo": 8122,
      "ibyavuye": 8123,
      "2001": 8124,
      "rwibutso": 8125,
      "yine": 8126,
      "##rike": 8127,
      "birenga": 8128,
      "birangira": 8129,
      "buha": 8130,
      "##kanywa": 8131,
      "imirongo": 8132,
      "bahagaze": 8133,
      "morocco": 8134,
      "baherutse": 8135,
      "##kugira": 8136,
      "family": 8137,
      "arya": 8138,
      "ronal": 8139,
      "mukozi": 8140,
      "imitsi": 8141,
      "##sation": 8142,
      "berekeza": 8143,
      "##ingye": 8144,
      "help": 8145,
      "udafite": 8146,
      "algeria": 8147,
      "##25": 8148,
      "back": 8149,
      "##tur": 8150,
      "injyana": 8151,
      "##tirwa": 8152,
      "bitabo": 8153,
      "etc": 8154,
      "##koman": 8155,
      "##bushake": 8156,
      "ingoro": 8157,
      "##wisi": 8158,
      "ubuha": 8159,
      "uburanga": 8160,
      "zizaba": 8161,
      "mihango": 8162,
      "bitekerezo": 8163,
      "##kwereka": 8164,
      "ikiraro": 8165,
      "akayabo": 8166,
      "atangwa": 8167,
      "ibivugwa": 8168,
      "gishya": 8169,
      "##durira": 8170,
      "##tory": 8171,
      "bitara": 8172,
      "##gereka": 8173,
      "##tangijwe": 8174,
      "##roheye": 8175,
      "ronaldo": 8176,
      "##mfura": 8177,
      "yahe": 8178,
      "##yiri": 8179,
      "gukurikiranwa": 8180,
      "amashami": 8181,
      "amaherezo": 8182,
      "dukeneye": 8183,
      "umwimerere": 8184,
      "##uro": 8185,
      "inkumi": 8186,
      "akabariro": 8187,
      "solu": 8188,
      "bameze": 8189,
      "##turo": 8190,
      "##hangane": 8191,
      "felix": 8192,
      "madaga": 8193,
      "ashinzwe": 8194,
      "##ii": 8195,
      "##bia": 8196,
      "##mubiri": 8197,
      "rwaka": 8198,
      "bahurira": 8199,
      "##py": 8200,
      "bavandimwe": 8201,
      "##bujijwe": 8202,
      "ikibi": 8203,
      "kwihan": 8204,
      "biribwa": 8205,
      "atera": 8206,
      "apfa": 8207,
      "##ryi": 8208,
      "ubutayu": 8209,
      "atwite": 8210,
      "seconda": 8211,
      "gacaca": 8212,
      "##dd": 8213,
      "abapfuye": 8214,
      "amasengesho": 8215,
      "gishanga": 8216,
      "##rokoka": 8217,
      "techno": 8218,
      "##rebera": 8219,
      "buholandi": 8220,
      "kibuye": 8221,
      "umunyu": 8222,
      "ration": 8223,
      "babarirwa": 8224,
      "alphonse": 8225,
      "umunyarwandakazi": 8226,
      "gusiganwa": 8227,
      "yasohotse": 8228,
      "manishimwe": 8229,
      "uwamahoro": 8230,
      "emi": 8231,
      "mona": 8232,
      "##fil": 8233,
      "basha": 8234,
      "ibrahi": 8235,
      "##gerero": 8236,
      "mpunzi": 8237,
      "kuramya": 8238,
      "damascene": 8239,
      "##kaje": 8240,
      "yaguze": 8241,
      "##rance": 8242,
      "##neri": 8243,
      "##senyuka": 8244,
      "danny": 8245,
      "cul": 8246,
      "##ctions": 8247,
      "intandaro": 8248,
      "amarira": 8249,
      "kigomba": 8250,
      "wange": 8251,
      "##murampaka": 8252,
      "##twika": 8253,
      "##subitswe": 8254,
      "biva": 8255,
      "##sive": 8256,
      "ibishyimbo": 8257,
      "rugan": 8258,
      "icyumba": 8259,
      "##vis": 8260,
      "rigizwe": 8261,
      "##suzumwa": 8262,
      "guhimbaza": 8263,
      "ef": 8264,
      "ijyanye": 8265,
      "yatangira": 8266,
      "amatsiko": 8267,
      "buju": 8268,
      "##jijo": 8269,
      "how": 8270,
      "kwegera": 8271,
      "guhagarara": 8272,
      "jour": 8273,
      "##genderwaho": 8274,
      "mutabazi": 8275,
      "imfu": 8276,
      "mikuru": 8277,
      "would": 8278,
      "##ily": 8279,
      "##aniro": 8280,
      "umenya": 8281,
      "wato": 8282,
      "##ality": 8283,
      "mwara": 8284,
      "##shishozi": 8285,
      "luka": 8286,
      "png": 8287,
      "##63": 8288,
      "##itandu": 8289,
      "##byimba": 8290,
      "atarenze": 8291,
      "rwigara": 8292,
      "akaru": 8293,
      "##yoboka": 8294,
      "ntibu": 8295,
      "whatsa": 8296,
      "isesengura": 8297,
      "##kuriye": 8298,
      "bikana": 8299,
      "##tif": 8300,
      "birababaje": 8301,
      "kayibanda": 8302,
      "syl": 8303,
      "meeting": 8304,
      "ikubitiro": 8305,
      "##vation": 8306,
      "law": 8307,
      "umwiherero": 8308,
      "kaburimbo": 8309,
      "initiative": 8310,
      "##oo": 8311,
      "mum": 8312,
      "imfa": 8313,
      "gikuru": 8314,
      "abangavu": 8315,
      "##menyin": 8316,
      "theone": 8317,
      "positi": 8318,
      "##mbuga": 8319,
      "##ramuka": 8320,
      "isho": 8321,
      "may": 8322,
      "kwishyira": 8323,
      "rama": 8324,
      "##sirikari": 8325,
      "1993": 8326,
      "gatabazi": 8327,
      "##mpike": 8328,
      "agaragara": 8329,
      "##fer": 8330,
      "bay": 8331,
      "naryo": 8332,
      "yozefu": 8333,
      "sebu": 8334,
      "past": 8335,
      "get": 8336,
      "kimihurura": 8337,
      "##yijani": 8338,
      "mayor": 8339,
      "##tunganya": 8340,
      "inzi": 8341,
      "imyuka": 8342,
      "thomas": 8343,
      "##banjirije": 8344,
      "game": 8345,
      "come": 8346,
      "kitara": 8347,
      "##ribayijani": 8348,
      "bazanye": 8349,
      "wambaye": 8350,
      "makosa": 8351,
      "igipimo": 8352,
      "coup": 8353,
      "twakoze": 8354,
      "ndashimira": 8355,
      "biragoye": 8356,
      "yunzemo": 8357,
      "yasubije": 8358,
      "umuganura": 8359,
      "ingwate": 8360,
      "yibaza": 8361,
      "##hangarwa": 8362,
      "interuro": 8363,
      "justin": 8364,
      "##ream": 8365,
      "##barira": 8366,
      "kwiyubaka": 8367,
      "##sinye": 8368,
      "##rasira": 8369,
      "onu": 8370,
      "gutabara": 8371,
      "maraso": 8372,
      "yaki": 8373,
      "ntib": 8374,
      "urugomo": 8375,
      "ally": 8376,
      "burenganzira": 8377,
      "sector": 8378,
      "turasaba": 8379,
      "private": 8380,
      "ikiremwa": 8381,
      "acco": 8382,
      "busingye": 8383,
      "avec": 8384,
      "##menyingiro": 8385,
      "##geli": 8386,
      "batawe": 8387,
      "indashyikirwa": 8388,
      "nzeli": 8389,
      "umuhinzi": 8390,
      "bukeye": 8391,
      "imipira": 8392,
      "##nie": 8393,
      "local": 8394,
      "iteganya": 8395,
      "yagi": 8396,
      "##yobe": 8397,
      "zijyanye": 8398,
      "hero": 8399,
      "online": 8400,
      "kuzirikana": 8401,
      "johnson": 8402,
      "iry": 8403,
      "##rah": 8404,
      "##babaza": 8405,
      "bisi": 8406,
      "##yanye": 8407,
      "nico": 8408,
      "##kinaga": 8409,
      "umutuku": 8410,
      "qatar": 8411,
      "nijeriya": 8412,
      "##part": 8413,
      "labora": 8414,
      "##vugurura": 8415,
      "harelimana": 8416,
      "mitungo": 8417,
      "##pla": 8418,
      "bugaragaza": 8419,
      "rwacu": 8420,
      "bel": 8421,
      "uwamu": 8422,
      "umututsi": 8423,
      "##yangamugayo": 8424,
      "including": 8425,
      "ububabare": 8426,
      "ije": 8427,
      "muhe": 8428,
      "mubare": 8429,
      "##rikire": 8430,
      "bots": 8431,
      "ryara": 8432,
      "##rizwamo": 8433,
      "malawi": 8434,
      "ubudage": 8435,
      "##zza": 8436,
      "kuma": 8437,
      "nakoze": 8438,
      "end": 8439,
      "imeze": 8440,
      "##zerwa": 8441,
      "yigenga": 8442,
      "cooperative": 8443,
      "imanishimwe": 8444,
      "ashoboye": 8445,
      "##yobera": 8446,
      "korali": 8447,
      "banyamakuru": 8448,
      "kwegura": 8449,
      "huriro": 8450,
      "mutagatifu": 8451,
      "against": 8452,
      "ahazaza": 8453,
      "##ande": 8454,
      "##teze": 8455,
      "nayi": 8456,
      "buti": 8457,
      "igihu": 8458,
      "ntaba": 8459,
      "gihembo": 8460,
      "ubwiherero": 8461,
      "bikamu": 8462,
      "murakaza": 8463,
      "cameroon": 8464,
      "byumweru": 8465,
      "##ful": 8466,
      "##yemerere": 8467,
      "ishuli": 8468,
      "ifunguro": 8469,
      "tro": 8470,
      "##gg": 8471,
      "kabanda": 8472,
      "##itize": 8473,
      "nkana": 8474,
      "accor": 8475,
      "ubwitange": 8476,
      "##garagambya": 8477,
      "##yongereyeho": 8478,
      "william": 8479,
      "tito": 8480,
      "cyashatse": 8481,
      "kwihutisha": 8482,
      "##tswa": 8483,
      "abirabura": 8484,
      "nkusi": 8485,
      "blo": 8486,
      "bire": 8487,
      "numvise": 8488,
      "inguge": 8489,
      "ibihuha": 8490,
      "##boneyeho": 8491,
      "##jugunya": 8492,
      "management": 8493,
      "murima": 8494,
      "##itabirwa": 8495,
      "theoneste": 8496,
      "evo": 8497,
      "ubumenyingiro": 8498,
      "##itabiriwe": 8499,
      "butemewe": 8500,
      "usengimana": 8501,
      "rwatangiye": 8502,
      "##sigaranye": 8503,
      "yateranye": 8504,
      "kata": 8505,
      "byateye": 8506,
      "rikuru": 8507,
      "kayihura": 8508,
      "inzitizi": 8509,
      "bahinzi": 8510,
      "##tien": 8511,
      "niwo": 8512,
      "##tanye": 8513,
      "mishya": 8514,
      "migabane": 8515,
      "board": 8516,
      "byanze": 8517,
      "brazil": 8518,
      "##iyo": 8519,
      "##90": 8520,
      "rukara": 8521,
      "##komera": 8522,
      "indishyi": 8523,
      "kuvamo": 8524,
      "gushakira": 8525,
      "##hangayikishijwe": 8526,
      "mukundana": 8527,
      "##itsa": 8528,
      "byavuzwe": 8529,
      "ahagarariye": 8530,
      "medi": 8531,
      "rwanyange": 8532,
      "udasanzwe": 8533,
      "imitekerereze": 8534,
      "mabi": 8535,
      "ryatangiye": 8536,
      "bazakomeza": 8537,
      "acp": 8538,
      "mbaru": 8539,
      "cmi": 8540,
      "umeze": 8541,
      "ubusho": 8542,
      "hakwiye": 8543,
      "yifashishije": 8544,
      "batabi": 8545,
      "##dents": 8546,
      "uburozi": 8547,
      "hagomba": 8548,
      "zimu": 8549,
      "##vaga": 8550,
      "##menyereye": 8551,
      "amadorari": 8552,
      "##hagaritswe": 8553,
      "makuza": 8554,
      "botswana": 8555,
      "art": 8556,
      "bihu": 8557,
      "mou": 8558,
      "francisca": 8559,
      "riteganya": 8560,
      "##ress": 8561,
      "yahuje": 8562,
      "##tete": 8563,
      "abagiye": 8564,
      "issu": 8565,
      "nyiraba": 8566,
      "because": 8567,
      "##hize": 8568,
      "west": 8569,
      "kuzajya": 8570,
      "##thers": 8571,
      "77": 8572,
      "ip": 8573,
      "gabon": 8574,
      "drc": 8575,
      "rudahigwa": 8576,
      "callixte": 8577,
      "ryanjye": 8578,
      "uva": 8579,
      "kiru": 8580,
      "##guraga": 8581,
      "faso": 8582,
      "yamwi": 8583,
      "zirenze": 8584,
      "irembo": 8585,
      "forever": 8586,
      "emplo": 8587,
      "bujumbura": 8588,
      "dini": 8589,
      "##83": 8590,
      "guhunga": 8591,
      "ntaganda": 8592,
      "forum": 8593,
      "##cyuho": 8594,
      "61": 8595,
      "##kurikiranira": 8596,
      "imyiteguro": 8597,
      "nous": 8598,
      "##yemerera": 8599,
      "adashobora": 8600,
      "kugabanuka": 8601,
      "uburemere": 8602,
      "evariste": 8603,
      "nyo": 8604,
      "ngomba": 8605,
      "ryawe": 8606,
      "pascal": 8607,
      "indone": 8608,
      "ahana": 8609,
      "##dc": 8610,
      "kuboneza": 8611,
      "##gisa": 8612,
      "habura": 8613,
      "week": 8614,
      "sea": 8615,
      "##yumvikana": 8616,
      "nkemurampaka": 8617,
      "##gendanye": 8618,
      "bafungiye": 8619,
      "##batse": 8620,
      "abaga": 8621,
      "byawe": 8622,
      "##dor": 8623,
      "ngarukamwaka": 8624,
      "academy": 8625,
      "##gukunda": 8626,
      "tuti": 8627,
      "zagiye": 8628,
      "dubai": 8629,
      "arena": 8630,
      "tuzakomeza": 8631,
      "mutekano": 8632,
      "sti": 8633,
      "singa": 8634,
      "batangaje": 8635,
      "bufasha": 8636,
      "kiris": 8637,
      "##ital": 8638,
      "gaz": 8639,
      "turashaka": 8640,
      "urabona": 8641,
      "finan": 8642,
      "##ozofi": 8643,
      "##kabije": 8644,
      "##sie": 8645,
      "mashyamba": 8646,
      "rigenga": 8647,
      "amusaba": 8648,
      "nyirama": 8649,
      "##rwanaho": 8650,
      "ugereranije": 8651,
      "ruhengeri": 8652,
      "ntan": 8653,
      "##garagarije": 8654,
      "del": 8655,
      "##ndiro": 8656,
      "babikora": 8657,
      "##hindagurika": 8658,
      "nshingamategeko": 8659,
      "rwabugiri": 8660,
      "siyansi": 8661,
      "##shege": 8662,
      "bet": 8663,
      "##rente": 8664,
      "umwambaro": 8665,
      "those": 8666,
      "rmc": 8667,
      "##iki": 8668,
      "##bagirwa": 8669,
      "##meke": 8670,
      "igendanwa": 8671,
      "insanganyamatsiko": 8672,
      "igishushanyo": 8673,
      "##gararira": 8674,
      "riga": 8675,
      "umunyamategeko": 8676,
      "##hanirwa": 8677,
      "filozofi": 8678,
      "tuvuga": 8679,
      "imirwano": 8680,
      "azam": 8681,
      "madame": 8682,
      "mubano": 8683,
      "kubyina": 8684,
      "yasize": 8685,
      "areba": 8686,
      "##mal": 8687,
      "didier": 8688,
      "somalia": 8689,
      "whatsapp": 8690,
      "ishya": 8691,
      "##goma": 8692,
      "igihumbi": 8693,
      "kongerera": 8694,
      "bemera": 8695,
      "siko": 8696,
      "afrique": 8697,
      "diyabete": 8698,
      "##sing": 8699,
      "bafasha": 8700,
      "umukara": 8701,
      "gutegeka": 8702,
      "kizwi": 8703,
      "gashumba": 8704,
      "convention": 8705,
      "guhumeka": 8706,
      "future": 8707,
      "ubwubatsi": 8708,
      "akurikira": 8709,
      "##cing": 8710,
      "##reta": 8711,
      "bafunzwe": 8712,
      "rwisumbuye": 8713,
      "knowless": 8714,
      "association": 8715,
      "src": 8716,
      "www": 8717,
      "##mers": 8718,
      "##tique": 8719,
      "afatanyije": 8720,
      "iboneka": 8721,
      "imijyi": 8722,
      "ingorane": 8723,
      "##riti": 8724,
      "##basiye": 8725,
      "wayoboraga": 8726,
      "##gengwa": 8727,
      "sal": 8728,
      "harerimana": 8729,
      "##bajwe": 8730,
      "democra": 8731,
      "kubyo": 8732,
      "##ingi": 8733,
      "nee": 8734,
      "##hererekane": 8735,
      "##mbane": 8736,
      "mpita": 8737,
      "district": 8738,
      "gikondo": 8739,
      "uwabi": 8740,
      "yabashije": 8741,
      "bwihuse": 8742,
      "uz": 8743,
      "zitanga": 8744,
      "##gombwa": 8745,
      "uburere": 8746,
      "##marayika": 8747,
      "komiseri": 8748,
      "since": 8749,
      "serge": 8750,
      "ingeso": 8751,
      "incuti": 8752,
      "effor": 8753,
      "bahanganye": 8754,
      "2002": 8755,
      "ibicurane": 8756,
      "umukiriya": 8757,
      "atangiye": 8758,
      "wamenyekanye": 8759,
      "iteganyijwe": 8760,
      "portugal": 8761,
      "yigaga": 8762,
      "amagaju": 8763,
      "uhagije": 8764,
      "##fc": 8765,
      "yasoje": 8766,
      "rwara": 8767,
      "daily": 8768,
      "1997": 8769,
      "##yandika": 8770,
      "##shyikirije": 8771,
      "ukurikije": 8772,
      "mure": 8773,
      "basu": 8774,
      "kigira": 8775,
      "yiya": 8776,
      "head": 8777,
      "fashi": 8778,
      "##none": 8779,
      "##stan": 8780,
      "biko": 8781,
      "nifuza": 8782,
      "nyirin": 8783,
      "bihembo": 8784,
      "gicamunsi": 8785,
      "bazira": 8786,
      "yatubwiye": 8787,
      "kuryama": 8788,
      "sinema": 8789,
      "##kimana": 8790,
      "bihuriye": 8791,
      "byitezwe": 8792,
      "rese": 8793,
      "##itura": 8794,
      "yumvaga": 8795,
      "ruhago": 8796,
      "inyota": 8797,
      "icyangombwa": 8798,
      "##oner": 8799,
      "mwari": 8800,
      "murugo": 8801,
      "ateye": 8802,
      "bacuruzi": 8803,
      "bihano": 8804,
      "##dizo": 8805,
      "mati": 8806,
      "ici": 8807,
      "segiteri": 8808,
      "barasabwa": 8809,
      "bagerageje": 8810,
      "gusinya": 8811,
      "iye": 8812,
      "bipimo": 8813,
      "##hinduwe": 8814,
      "bizajya": 8815,
      "##minari": 8816,
      "dieudon": 8817,
      "kabandana": 8818,
      "haruna": 8819,
      "atsinda": 8820,
      "ukekwaho": 8821,
      "##shonga": 8822,
      "abashyitsi": 8823,
      "ruki": 8824,
      "byafashwe": 8825,
      "##ned": 8826,
      "zigaragaza": 8827,
      "##subiramo": 8828,
      "bonyine": 8829,
      "icyarimwe": 8830,
      "wikipediya": 8831,
      "##tine": 8832,
      "banyuze": 8833,
      "##mbukiranya": 8834,
      "guhatanira": 8835,
      "just": 8836,
      "itwaye": 8837,
      "scien": 8838,
      "utanga": 8839,
      "yashimangiye": 8840,
      "193": 8841,
      "kwereka": 8842,
      "magare": 8843,
      "hambere": 8844,
      "gihu": 8845,
      "babasha": 8846,
      "wica": 8847,
      "##fero": 8848,
      "cette": 8849,
      "##blika": 8850,
      "##sb": 8851,
      "##kapu": 8852,
      "yarangije": 8853,
      "kabone": 8854,
      "##tors": 8855,
      "cyakora": 8856,
      "cyatangiye": 8857,
      "##ranishwa": 8858,
      "##garutsweho": 8859,
      "##garutseho": 8860,
      "oppor": 8861,
      "69": 8862,
      "##uko": 8863,
      "yakundaga": 8864,
      "gukiranuka": 8865,
      "bugira": 8866,
      "busu": 8867,
      "##sus": 8868,
      "komine": 8869,
      "##kundanye": 8870,
      "ibrahim": 8871,
      "utwa": 8872,
      "##ign": 8873,
      "##scar": 8874,
      "twatangiye": 8875,
      "jeu": 8876,
      "bizafasha": 8877,
      "kuburana": 8878,
      "habarurema": 8879,
      "##giti": 8880,
      "##gizwa": 8881,
      "##mihigo": 8882,
      "##hiri": 8883,
      "kwifashisha": 8884,
      "2024": 8885,
      "biruta": 8886,
      "##tics": 8887,
      "site": 8888,
      "uruzinduko": 8889,
      "official": 8890,
      "mc": 8891,
      "kurangwa": 8892,
      "##rurwa": 8893,
      "abadi": 8894,
      "gatanya": 8895,
      "bakize": 8896,
      "cyicaro": 8897,
      "alexis": 8898,
      "##lit": 8899,
      "mugari": 8900,
      "##bibe": 8901,
      "kacyi": 8902,
      "nyayo": 8903,
      "##pore": 8904,
      "utundi": 8905,
      "bikabije": 8906,
      "umutware": 8907,
      "yazanye": 8908,
      "##zewe": 8909,
      "##kirana": 8910,
      "bisobanuye": 8911,
      "mashini": 8912,
      "ntayo": 8913,
      "mer": 8914,
      "aline": 8915,
      "##itonze": 8916,
      "rukumbi": 8917,
      "cris": 8918,
      "fun": 8919,
      "sk": 8920,
      "wiga": 8921,
      "imurika": 8922,
      "trade": 8923,
      "gmail": 8924,
      "##muro": 8925,
      "iny": 8926,
      "abatavuga": 8927,
      "##hindagu": 8928,
      "##komotse": 8929,
      "##banziriza": 8930,
      "fashion": 8931,
      "resear": 8932,
      "abyi": 8933,
      "ritu": 8934,
      "impor": 8935,
      "care": 8936,
      "##elle": 8937,
      "bakumva": 8938,
      "commissi": 8939,
      "wda": 8940,
      "hashyizweho": 8941,
      "imisa": 8942,
      "ijonjora": 8943,
      "bagerageza": 8944,
      "##gurishije": 8945,
[...]
